{
  "version": "1.0",
  "truncation": null,
  "padding": null,
  "added_tokens": [
    {
      "id": 0,
      "content": "<pad>",
      "single_word": false,
      "lstrip": false,
      "rstrip": false,
      "normalized": false,
      "special": true
    },
    {
      "id": 1,
      "content": "<unk>",
      "single_word": false,
      "lstrip": false,
      "rstrip": false,
      "normalized": false,
      "special": true
    },
    {
      "id": 2,
      "content": "<bos>",
      "single_word": false,
      "lstrip": false,
      "rstrip": false,
      "normalized": false,
      "special": true
    },
    {
      "id": 3,
      "content": "<eos>",
      "single_word": false,
      "lstrip": false,
      "rstrip": false,
      "normalized": false,
      "special": true
    },
    {
      "id": 4,
      "content": "<fim_prefix>",
      "single_word": false,
      "lstrip": false,
      "rstrip": false,
      "normalized": false,
      "special": true
    },
    {
      "id": 5,
      "content": "<fim_suffix>",
      "single_word": false,
      "lstrip": false,
      "rstrip": false,
      "normalized": false,
      "special": true
    },
    {
      "id": 6,
      "content": "<fim_middle>",
      "single_word": false,
      "lstrip": false,
      "rstrip": false,
      "normalized": false,
      "special": true
    }
  ],
  "normalizer": null,
  "pre_tokenizer": {
    "type": "ByteLevel",
    "add_prefix_space": false,
    "trim_offsets": true,
    "use_regex": true
  },
  "post_processor": null,
  "decoder": {
    "type": "ByteLevel",
    "add_prefix_space": true,
    "trim_offsets": true,
    "use_regex": true
  },
  "model": {
    "type": "BPE",
    "dropout": null,
    "unk_token": "<unk>",
    "continuing_subword_prefix": null,
    "end_of_word_suffix": null,
    "fuse_unk": false,
    "byte_fallback": false,
    "ignore_merges": false,
    "vocab": {
      "<pad>": 0,
      "<unk>": 1,
      "<bos>": 2,
      "<eos>": 3,
      "<fim_prefix>": 4,
      "<fim_suffix>": 5,
      "<fim_middle>": 6,
      "!": 7,
      "\"": 8,
      "#": 9,
      "$": 10,
      "%": 11,
      "&": 12,
      "'": 13,
      "(": 14,
      ")": 15,
      "*": 16,
      "+": 17,
      ",": 18,
      "-": 19,
      ".": 20,
      "/": 21,
      "0": 22,
      "1": 23,
      "2": 24,
      "3": 25,
      "4": 26,
      "5": 27,
      "6": 28,
      "7": 29,
      "8": 30,
      "9": 31,
      ":": 32,
      ";": 33,
      "<": 34,
      "=": 35,
      ">": 36,
      "?": 37,
      "@": 38,
      "A": 39,
      "B": 40,
      "C": 41,
      "D": 42,
      "E": 43,
      "F": 44,
      "G": 45,
      "H": 46,
      "I": 47,
      "J": 48,
      "K": 49,
      "L": 50,
      "M": 51,
      "N": 52,
      "O": 53,
      "P": 54,
      "Q": 55,
      "R": 56,
      "S": 57,
      "T": 58,
      "U": 59,
      "V": 60,
      "W": 61,
      "X": 62,
      "Y": 63,
      "Z": 64,
      "[": 65,
      "\\": 66,
      "]": 67,
      "^": 68,
      "_": 69,
      "`": 70,
      "a": 71,
      "b": 72,
      "c": 73,
      "d": 74,
      "e": 75,
      "f": 76,
      "g": 77,
      "h": 78,
      "i": 79,
      "j": 80,
      "k": 81,
      "l": 82,
      "m": 83,
      "n": 84,
      "o": 85,
      "p": 86,
      "q": 87,
      "r": 88,
      "s": 89,
      "t": 90,
      "u": 91,
      "v": 92,
      "w": 93,
      "x": 94,
      "y": 95,
      "z": 96,
      "{": 97,
      "|": 98,
      "}": 99,
      "~": 100,
      "¡": 101,
      "¢": 102,
      "£": 103,
      "¤": 104,
      "¥": 105,
      "¦": 106,
      "§": 107,
      "¨": 108,
      "©": 109,
      "ª": 110,
      "«": 111,
      "¬": 112,
      "®": 113,
      "¯": 114,
      "°": 115,
      "±": 116,
      "²": 117,
      "³": 118,
      "´": 119,
      "µ": 120,
      "¶": 121,
      "·": 122,
      "¸": 123,
      "¹": 124,
      "º": 125,
      "»": 126,
      "¼": 127,
      "½": 128,
      "¾": 129,
      "¿": 130,
      "Â": 131,
      "Ã": 132,
      "Ä": 133,
      "Å": 134,
      "Í": 135,
      "Î": 136,
      "Ï": 137,
      "Ð": 138,
      "Ñ": 139,
      "â": 140,
      "ã": 141,
      "ä": 142,
      "å": 143,
      "æ": 144,
      "ç": 145,
      "è": 146,
      "é": 147,
      "ê": 148,
      "ë": 149,
      "ì": 150,
      "í": 151,
      "ï": 152,
      "ð": 153,
      "Ă": 154,
      "ă": 155,
      "Ą": 156,
      "ĉ": 157,
      "Ċ": 158,
      "č": 159,
      "ē": 160,
      "Ġ": 161,
      "Ģ": 162,
      "ģ": 163,
      "Ĥ": 164,
      "ĥ": 165,
      "Ħ": 166,
      "ħ": 167,
      "Ĩ": 168,
      "ĩ": 169,
      "Ī": 170,
      "ī": 171,
      "Ĭ": 172,
      "ĭ": 173,
      "Į": 174,
      "į": 175,
      "İ": 176,
      "ı": 177,
      "Ĳ": 178,
      "ĳ": 179,
      "Ĵ": 180,
      "ĵ": 181,
      "Ķ": 182,
      "ķ": 183,
      "ĸ": 184,
      "Ĺ": 185,
      "ĺ": 186,
      "Ļ": 187,
      "ļ": 188,
      "Ľ": 189,
      "ľ": 190,
      "Ŀ": 191,
      "ŀ": 192,
      "Ł": 193,
      "ł": 194,
      "Ń": 195,
      "ĠĠ": 196,
      "ĠĠĠĠ": 197,
      "in": 198,
      "Ġt": 199,
      "ĠĠĠ": 200,
      "re": 201,
      "Ġa": 202,
      "he": 203,
      "er": 204,
      "or": 205,
      "on": 206,
      "st": 207,
      "at": 208,
      "en": 209,
      "Ġ=": 210,
      "Ġthe": 211,
      "ĠĠĠĠĠĠĠ": 212,
      "se": 213,
      "Ġi": 214,
      "Ġc": 215,
      "de": 216,
      "Ġf": 217,
      "Ġin": 218,
      "ar": 219,
      "le": 220,
      "al": 221,
      "Ġre": 222,
      "Ġp": 223,
      "Ġn": 224,
      "it": 225,
      "ra": 226,
      "ur": 227,
      "ct": 228,
      "um": 229,
      "ing": 230,
      "Ġs": 231,
      "ro": 232,
      "Ġo": 233,
      "ion": 234,
      "Ġm": 235,
      "Ġl": 236,
      "nd": 237,
      "Ġto": 238,
      "es": 239,
      "Ġw": 240,
      "):": 241,
      "th": 242,
      "ĠĠĠĠĠĠĠĠĠĠĠ": 243,
      "Ġe": 244,
      "ge": 245,
      "Ġd": 246,
      "ate": 247,
      "urn": 248,
      "turn": 249,
      "mp": 250,
      "ist": 251,
      "ut": 252,
      "ent": 253,
      "Ġb": 254,
      "Ġof": 255,
      "Ġreturn": 256,
      "ĠĊ": 257,
      "ue": 258,
      "un": 259,
      "def": 260,
      "Ġfor": 261,
      "Ġse": 262,
      "me": 263,
      "int": 264,
      "ul": 265,
      "lf": 266,
      "Ġand": 267,
      "Ġ'": 268,
      "str": 269,
      "Ġ1": 270,
      "ort": 271,
      "Ġif": 272,
      "Ġ#": 273,
      "yth": 274,
      "ython": 275,
      "ri": 276,
      "an": 277,
      "ce": 278,
      "ĠĠĠĠĠĠĠĠ": 279,
      "ord": 280,
      "as": 281,
      "ode": 282,
      "ch": 283,
      "Ġ\"": 284,
      "Ġnum": 285,
      "ĠP": 286,
      "Ġis": 287,
      "ed": 288,
      "ction": 289,
      "Ġ+": 290,
      "ers": 291,
      "rint": 292,
      "val": 293,
      "Ġco": 294,
      "te": 295,
      "lo": 296,
      "string": 297,
      "Ġg": 298,
      "Ġth": 299,
      "iv": 300,
      "``": 301,
      "ata": 302,
      "ĠC": 303,
      "ult": 304,
      "ĠPython": 305,
      "ĠT": 306,
      "Ġ0": 307,
      "Ġself": 308,
      "ot": 309,
      "is": 310,
      "Ġ-": 311,
      "Ġ(": 312,
      "Ġ[": 313,
      "co": 314,
      "ck": 315,
      "Ġu": 316,
      "Ġra": 317,
      "()": 318,
      "id": 319,
      "ap": 320,
      "ame": 321,
      "--": 322,
      "if": 323,
      "Ġ`": 324,
      "res": 325,
      "mport": 326,
      "il": 327,
      "Ġlist": 328,
      "ad": 329,
      "unt": 330,
      "ic": 331,
      "end": 332,
      "ith": 333,
      "rom": 334,
      "gh": 335,
      "',": 336,
      "Ġpro": 337,
      "ment": 338,
      "ke": 339,
      "ver": 340,
      "ĠI": 341,
      "put": 342,
      "Ġres": 343,
      "xt": 344,
      "ĠĠĠĠĊ": 345,
      "Ġit": 346,
      "Ġan": 347,
      "Ġst": 348,
      "Ġar": 349,
      "qu": 350,
      "ation": 351,
      "ax": 352,
      "Ġnumb": 353,
      "))": 354,
      "ass": 355,
      "num": 356,
      "Ġal": 357,
      "Ġval": 358,
      "el": 359,
      "iz": 360,
      "ren": 361,
      "Ġ==": 362,
      "__": 363,
      "get": 364,
      "om": 365,
      "gra": 366,
      "##": 367,
      "ile": 368,
      "self": 369,
      "di": 370,
      "ite": 371,
      "reate": 372,
      "pl": 373,
      "gram": 374,
      "Ġdef": 375,
      "list": 376,
      "Ġch": 377,
      "ind": 378,
      "nge": 379,
      "Ġstring": 380,
      "pt": 381,
      "Ġresult": 382,
      "ab": 383,
      "Ġ2": 384,
      "im": 385,
      "ĠĠĠĠĠĠĠĠĠĠĠĠĠĠĠ": 386,
      "Ġprint": 387,
      "word": 388,
      "key": 389,
      "Ġas": 390,
      "Ġlen": 391,
      "ary": 392,
      "ĠF": 393,
      "Ġcon": 394,
      "et": 395,
      "ir": 396,
      "print": 397,
      "que": 398,
      "Ġh": 399,
      "ft": 400,
      "Ġrange": 401,
      "Ġthat": 402,
      "(\"": 403,
      "Ġdata": 404,
      "ve": 405,
      "Ġdi": 406,
      "':": 407,
      "Ġne": 408,
      "ght": 409,
      "lement": 410,
      "ray": 411,
      "('": 412,
      "lass": 413,
      "Ġel": 414,
      "up": 415,
      "age": 416,
      "```": 417,
      "ol": 418,
      "Ġwith": 419,
      "\"\"": 420,
      "Ġmax": 421,
      "Ġword": 422,
      "ub": 423,
      "\",": 424,
      "rent": 425,
      "ach": 426,
      "import": 427,
      "act": 428,
      "ĠCreate": 429,
      "Ġle": 430,
      "unction": 431,
      "app": 432,
      "Ġpo": 433,
      "Ġprogram": 434,
      "ize": 435,
      "')": 436,
      "mo": 437,
      "Ġ{": 438,
      "erate": 439,
      "Ġnot": 440,
      "to": 441,
      "Ġnumber": 442,
      "ĠS": 443,
      "name": 444,
      "Ġcur": 445,
      "one": 446,
      "pe": 447,
      "ser": 448,
      "])": 449,
      "Ġwe": 450,
      "for": 451,
      "iven": 452,
      "==": 453,
      "Ġfrom": 454,
      "Ġde": 455,
      "Ġy": 456,
      "Ġchar": 457,
      "ĠW": 458,
      "Ġfunction": 459,
      "Ġgiven": 460,
      "art": 461,
      "Re": 462,
      "ase": 463,
      "odel": 464,
      "Ġ*": 465,
      "----": 466,
      "data": 467,
      "ĠThe": 468,
      "ow": 469,
      "ĠD": 470,
      "right": 471,
      "ain": 472,
      "ay": 473,
      "ces": 474,
      "],": 475,
      "Ġ+=": 476,
      "ine": 477,
      "ĠA": 478,
      "Ġ<": 479,
      "ib": 480,
      "Ġvalue": 481,
      "dex": 482,
      "\")": 483,
      "Ġeach": 484,
      "len": 485,
      "Ġj": 486,
      "ial": 487,
      "ter": 488,
      "Ġimport": 489,
      "ĠN": 490,
      "gth": 491,
      "Ġarray": 492,
      "ime": 493,
      "from": 494,
      "op": 495,
      "Ġwh": 496,
      "dict": 497,
      "Ġbe": 498,
      "Ġcount": 499,
      "Ġsum": 500,
      "Ġor": 501,
      "ig": 502,
      "dd": 503,
      "Ġte": 504,
      "Ġelse": 505,
      "Ġx": 506,
      "con": 507,
      "ne": 508,
      "['": 509,
      "ly": 510,
      "Ġsort": 511,
      "Ġcurrent": 512,
      "00": 513,
      "ou": 514,
      "Ġro": 515,
      "sing": 516,
      "Ġ3": 517,
      "Ġelement": 518,
      "ĠĠĊ": 519,
      "Ġv": 520,
      "Ġkey": 521,
      "append": 522,
      "][": 523,
      "am": 524,
      "rite": 525,
      "heck": 526,
      "and": 527,
      "able": 528,
      "ĠG": 529,
      "Ġtra": 530,
      "cc": 531,
      "ore": 532,
      "ĠO": 533,
      "ack": 534,
      "od": 535,
      "Ġinput": 536,
      "ive": 537,
      "ree": 538,
      "####": 539,
      "per": 540,
      "Ġdiction": 541,
      "enerate": 542,
      "arr": 543,
      "ĠĠĠĠĠĠĠĠĠĠĠĠĠĠĠĠ": 544,
      "rue": 545,
      "Ġset": 546,
      "ndom": 547,
      "Ġcal": 548,
      "ns": 549,
      "low": 550,
      "Ġtw": 551,
      "mple": 552,
      "Ġby": 553,
      "tra": 554,
      "ath": 555,
      "python": 556,
      "gor": 557,
      "ues": 558,
      "uct": 559,
      "Ġall": 560,
      "ĠIf": 561,
      "Ġnumbers": 562,
      "cul": 563,
      "ust": 564,
      "ty": 565,
      "Ġlo": 566,
      "Ġcharact": 567,
      "utput": 568,
      "ies": 569,
      "ĠL": 570,
      "Ġ>": 571,
      "ence": 572,
      "Ġnode": 573,
      "Ġare": 574,
      "ity": 575,
      "us": 576,
      "']": 577,
      "her": 578,
      "Ġ%": 579,
      "Ġex": 580,
      "Ġleft": 581,
      "ms": 582,
      "Ġme": 583,
      "class": 584,
      "Ġmin": 585,
      "Ġtwo": 586,
      "Ġfind": 587,
      "ĠRe": 588,
      "pro": 589,
      "Ġsub": 590,
      "Ġcol": 591,
      "count": 592,
      "ak": 593,
      "Ġ[]": 594,
      "Ġon": 595,
      "Ġnew": 596,
      "gorith": 597,
      "red": 598,
      "quest": 599,
      "set": 600,
      "Ġright": 601,
      "ĠWrite": 602,
      "gorithm": 603,
      "ip": 604,
      "Ġ5": 605,
      "Ġdictionary": 606,
      "Ġen": 607,
      "cur": 608,
      "irst": 609,
      "text": 610,
      "Ġwords": 611,
      "po": 612,
      "Ġalgorithm": 613,
      "ates": 614,
      "ance": 615,
      "Ġstr": 616,
      "Ġuse": 617,
      "vi": 618,
      "mat": 619,
      "his": 620,
      "Ġ__": 621,
      "ag": 622,
      "Ġ\"\"\"": 623,
      "arget": 624,
      "Ġarr": 625,
      "alse": 626,
      "),": 627,
      "Ġpre": 628,
      "ect": 629,
      "Ġcont": 630,
      "ast": 631,
      "ĠE": 632,
      "Ġrandom": 633,
      "cri": 634,
      "ĠB": 635,
      "Ġ4": 636,
      "verse": 637,
      "ĠNone": 638,
      "Ġusing": 639,
      "Ġclass": 640,
      "ror": 641,
      "ard": 642,
      "ĠU": 643,
      "Ġk": 644,
      "numb": 645,
      "imum": 646,
      "Ġhe": 647,
      "ĉĉ": 648,
      "**": 649,
      "words": 650,
      "Ġite": 651,
      "Ġint": 652,
      "ss": 653,
      "ĠIn": 654,
      "culate": 655,
      "Ġbo": 656,
      "sum": 657,
      "cript": 658,
      "ĠM": 659,
      "gest": 660,
      "Ġcheck": 661,
      "nums": 662,
      "ven": 663,
      "model": 664,
      "Ġget": 665,
      "Ġup": 666,
      "ail": 667,
      "Ġadd": 668,
      "test": 669,
      "tal": 670,
      "====": 671,
      "result": 672,
      "Ġcode": 673,
      "py": 674,
      "Ġsorted": 675,
      "date": 676,
      "plit": 677,
      "Ġwhile": 678,
      "ure": 679,
      "url": 680,
      "pon": 681,
      "Ġtotal": 682,
      "arch": 683,
      "itial": 684,
      "sort": 685,
      "order": 686,
      "teg": 687,
      "--------": 688,
      "ition": 689,
      "tt": 690,
      "ustom": 691,
      "Ġmodel": 692,
      "vert": 693,
      "ex": 694,
      "Ġtarget": 695,
      "\":": 696,
      "son": 697,
      "ise": 698,
      "node": 699,
      "roup": 700,
      "ang": 701,
      "Ġindex": 702,
      "Ġfile": 703,
      "Ġsh": 704,
      "com": 705,
      "Ġlength": 706,
      "rou": 707,
      "left": 708,
      "duct": 709,
      "all": 710,
      "file": 711,
      "Ġap": 712,
      "Ġrequest": 713,
      "ject": 714,
      "add": 715,
      "//": 716,
      "Ġpoint": 717,
      "Ġinteg": 718,
      "ph": 719,
      "Ġemp": 720,
      "Ġend": 721,
      "bo": 722,
      "li": 723,
      "we": 724,
      "ĠTrue": 725,
      "ample": 726,
      "Ġfirst": 727,
      "Ġname": 728,
      "fe": 729,
      "Ġiter": 730,
      "Ġpri": 731,
      "():": 732,
      "Ġnums": 733,
      "max": 734,
      "Ġcomp": 735,
      "entence": 736,
      "Ġstart": 737,
      "ace": 738,
      "par": 739,
      "Ġvalues": 740,
      "Ġtime": 741,
      "Ġr": 742,
      "ild": 743,
      "ations": 744,
      "rough": 745,
      "Ġthrough": 746,
      ").": 747,
      "acc": 748,
      "sage": 749,
      "ute": 750,
      "Ġrow": 751,
      "Ġstore": 752,
      "Ġmo": 753,
      "ff": 754,
      "ĠFalse": 755,
      "length": 756,
      "Ġun": 757,
      "Ġso": 758,
      "Ġitem": 759,
      "ound": 760,
      "ask": 761,
      "Ġ10": 762,
      "ry": 763,
      "queue": 764,
      "__(": 765,
      "='": 766,
      "ress": 767,
      "ĠĠĠĠĠĠĠĠĠĠĠĠĠĠĠĠĠĠĠ": 768,
      "cess": 769,
      "index": 770,
      "Ġelif": 771,
      "value": 772,
      "ill": 773,
      "path": 774,
      "init": 775,
      "'s": 776,
      "cy": 777,
      "ctions": 778,
      "ep": 779,
      "train": 780,
      "ustomer": 781,
      "Ġmat": 782,
      "Ġat": 783,
      "Ġelements": 784,
      "read": 785,
      "`.": 786,
      "Ġcalculate": 787,
      "Ġcom": 788,
      "Ġcan": 789,
      "Ġnp": 790,
      "char": 791,
      "Ġ:": 792,
      "array": 793,
      "items": 794,
      "########": 795,
      "rror": 796,
      "Ġ```": 797,
      "Ġpa": 798,
      "ĠThis": 799,
      "ign": 800,
      "ac": 801,
      "ĠĠĠĠĠ": 802,
      "ify": 803,
      "Ġcharacters": 804,
      "Ġgenerate": 805,
      "Ġtext": 806,
      "cre": 807,
      "curs": 808,
      "Ġinto": 809,
      "plic": 810,
      "time": 811,
      "Error": 812,
      "In": 813,
      "inal": 814,
      "pri": 815,
      "Ġthis": 816,
      "row": 817,
      "qui": 818,
      "itle": 819,
      "ml": 820,
      "Ġreturns": 821,
      "Ġempty": 822,
      "arn": 823,
      "move": 824,
      ")):": 825,
      "ĠGenerate": 826,
      "Ġwhe": 827,
      "input": 828,
      "cs": 829,
      "Ġ{}": 830,
      "Ġtak": 831,
      "onacc": 832,
      "onacci": 833,
      "ther": 834,
      "ibonacci": 835,
      "ken": 836,
      "assword": 837,
      "ique": 838,
      "are": 839,
      "Ġdo": 840,
      "split": 841,
      "Ġpython": 842,
      "ponse": 843,
      "ich": 844,
      "form": 845,
      "ating": 846,
      "ix": 847,
      "Ġcharacter": 848,
      "gs": 849,
      "\"\"\"": 850,
      "]:": 851,
      "thod": 852,
      "Ġcreate": 853,
      "ight": 854,
      "ures": 855,
      "ator": 856,
      "Ġuser": 857,
      "([": 858,
      "Ġpar": 859,
      "our": 860,
      "pre": 861,
      "ongest": 862,
      "Ġdist": 863,
      "Ġwhich": 864,
      "abel": 865,
      "iel": 866,
      "ents": 867,
      "Ġpl": 868,
      "ĠIt": 869,
      "The": 870,
      "rix": 871,
      "Ġtakes": 872,
      "sub": 873,
      "Ġhas": 874,
      "Ġmaximum": 875,
      "Ġscript": 876,
      "ield": 877,
      "tr": 878,
      "min": 879,
      "size": 880,
      "ĠĠĠĠĠĠĠĠĊ": 881,
      "bject": 882,
      "Ġpos": 883,
      "ake": 884,
      "Ġorder": 885,
      "numbers": 886,
      "ifi": 887,
      "Ġ6": 888,
      "itialize": 889,
      "jo": 890,
      "core": 891,
      "out": 892,
      "Ġ8": 893,
      "ault": 894,
      "ĠDe": 895,
      "Ġthan": 896,
      "actor": 897,
      "ĠOutput": 898,
      "col": 899,
      "ĠJ": 900,
      "Val": 901,
      "main": 902,
      "code": 903,
      "Ġper": 904,
      "ant": 905,
      "Ġits": 906,
      "cl": 907,
      "cept": 908,
      "ink": 909,
      "cond": 910,
      "Ġcontain": 911,
      "ON": 912,
      "Ġsearch": 913,
      "git": 914,
      "Ġ**": 915,
      "ĠReturn": 916,
      "agram": 917,
      "!=": 918,
      "mount": 919,
      "Ġstack": 920,
      "Ġ{'": 921,
      "._": 922,
      "Ġdp": 923,
      "Ġoutput": 924,
      "Ġdict": 925,
      "ded": 926,
      "Ġstrings": 927,
      "ptim": 928,
      "ok": 929,
      "uld": 930,
      "Ġ!=": 931,
      "ĠR": 932,
      "ari": 933,
      "qual": 934,
      "quen": 935,
      "Ġgroup": 936,
      "tml": 937,
      "mon": 938,
      "Ġroot": 939,
      "start": 940,
      "mail": 941,
      "ave": 942,
      "Ġreverse": 943,
      "Ġloop": 944,
      "erge": 945,
      "Ġ7": 946,
      "ye": 947,
      "les": 948,
      "ative": 949,
      "=\"": 950,
      "essage": 951,
      "10": 952,
      "ould": 953,
      "loat": 954,
      "inary": 955,
      "indow": 956,
      "Ġsk": 957,
      "vers": 958,
      "Ġrequests": 959,
      "Ġmethod": 960,
      "Ġmid": 961,
      "av": 962,
      "Ġtest": 963,
      "etwe": 964,
      "Ġwill": 965,
      "etween": 966,
      "..": 967,
      "rence": 968,
      "next": 969,
      "fit": 970,
      "so": 971,
      "Ġout": 972,
      "sh": 973,
      "ayer": 974,
      "join": 975,
      "find": 976,
      "Ġfound": 977,
      "quer": 978,
      "Ġfol": 979,
      "ible": 980,
      "root": 981,
      "].": 982,
      "Ġjson": 983,
      "Ġbetween": 984,
      "`,": 985,
      "rid": 986,
      "ctor": 987,
      "Ġqueue": 988,
      "ions": 989,
      "aries": 990,
      "learn": 991,
      "Ġ_": 992,
      "Ġweb": 993,
      "nsa": 994,
      "stance": 995,
      "Ġfre": 996,
      "ttp": 997,
      "head": 998,
      "ĠH": 999,
      "Ġlongest": 1000,
      "item": 1001,
      "ide": 1002,
      "igh": 1003,
      "Ġsentence": 1004,
      "ical": 1005,
      "Ġline": 1006,
      "ud": 1007,
      "Node": 1008,
      "line": 1009,
      "Ġvalid": 1010,
      "ype": 1011,
      "ĠEx": 1012,
      "ses": 1013,
      "========": 1014,
      "number": 1015,
      "ont": 1016,
      "pa": 1017,
      "Ġunique": 1018,
      "Ġproduct": 1019,
      "Ġpair": 1020,
      "Ġnext": 1021,
      "pec": 1022,
      "Ġfollow": 1023,
      "xtra": 1024,
      "Ġinteger": 1025,
      "Ġcolum": 1026,
      "Ġone": 1027,
      "Ġcustomer": 1028,
      "Ġseen": 1029,
      "Ġmod": 1030,
      "sc": 1031,
      "Ġover": 1032,
      "pen": 1033,
      "izer": 1034,
      "Ġlast": 1035,
      "Ġsklearn": 1036,
      "enti": 1037,
      "Ġbase": 1038,
      "ending": 1039,
      "csv": 1040,
      "Ġ/": 1041,
      "Ġoper": 1042,
      "This": 1043,
      "ice": 1044,
      "uplic": 1045,
      "Ġshould": 1046,
      "sorted": 1047,
      "ST": 1048,
      "True": 1049,
      "ient": 1050,
      "Ġdif": 1051,
      "base": 1052,
      "ariable": 1053,
      "ĠInitialize": 1054,
      "os": 1055,
      "Ġ''": 1056,
      "format": 1057,
      ")]": 1058,
      "Ġfactor": 1059,
      "ER": 1060,
      "quence": 1061,
      "Ġanagram": 1062,
      "Ġequal": 1063,
      "Ġfil": 1064,
      "'])": 1065,
      "Ġ->": 1066,
      "Ġens": 1067,
      "Ġ9": 1068,
      "Ġsecond": 1069,
      "Ġtemp": 1070,
      "gative": 1071,
      "Ġtree": 1072,
      "est": 1073,
      "html": 1074,
      "ffic": 1075,
      "[:": 1076,
      "Ġintegers": 1077,
      "Ġmerge": 1078,
      "List": 1079,
      "cont": 1080,
      "sert": 1081,
      "Ġtrain": 1082,
      "ost": 1083,
      "Ġpd": 1084,
      "isit": 1085,
      "query": 1086,
      "mplement": 1087,
      "Ġnon": 1088,
      "Ġsol": 1089,
      "ys": 1090,
      "Ġrep": 1091,
      "ĠCheck": 1092,
      "resent": 1093,
      "title": 1094,
      "Ġsc": 1095,
      "Ġupdate": 1096,
      "iter": 1097,
      "Ġ<=": 1098,
      "čĊ": 1099,
      "ding": 1100,
      "ense": 1101,
      "Ġboth": 1102,
      "pop": 1103,
      "ression": 1104,
      "ĠWe": 1105,
      "Ġdefault": 1106,
      "Ġpath": 1107,
      "Ġhave": 1108,
      "user": 1109,
      "atch": 1110,
      "by": 1111,
      "Ġremove": 1112,
      "]]": 1113,
      "ble": 1114,
      "ork": 1115,
      "Ġthen": 1116,
      "random": 1117,
      "----------------": 1118,
      "vel": 1119,
      "Ġother": 1120,
      "ĠCon": 1121,
      "())": 1122,
      "Ġcor": 1123,
      "Ġ['": 1124,
      "ĠCo": 1125,
      "type": 1126,
      "Value": 1127,
      "aut": 1128,
      "fo": 1129,
      "://": 1130,
      "au": 1131,
      "Ġeven": 1132,
      "my": 1133,
      "Ġraise": 1134,
      "entiment": 1135,
      "ater": 1136,
      "Ġcomple": 1137,
      "pos": 1138,
      "\"]": 1139,
      "Ġcase": 1140,
      "db": 1141,
      "instance": 1142,
      "Ġ-=": 1143,
      "Ġany": 1144,
      "bin": 1145,
      "Ġsubstring": 1146,
      "Ġposition": 1147,
      "Ġconvert": 1148,
      "alind": 1149,
      "Ġsize": 1150,
      "SON": 1151,
      "Ġlar": 1152,
      "Ġminimum": 1153,
      "json": 1154,
      "token": 1155,
      "Ġbinary": 1156,
      "lot": 1157,
      "Ġrequi": 1158,
      "of": 1159,
      "ĠIterate": 1160,
      "lask": 1161,
      "product": 1162,
      "Ġid": 1163,
      "Ġtop": 1164,
      "ution": 1165,
      "Ġkeys": 1166,
      "ens": 1167,
      "element": 1168,
      "mal": 1169,
      "},": 1170,
      "otal": 1171,
      "sentence": 1172,
      "ated": 1173,
      "http": 1174,
      "Ġgre": 1175,
      "Ġvariable": 1176,
      "Ġfollowing": 1177,
      "Ġhead": 1178,
      "Ġdiv": 1179,
      "tree": 1180,
      "Ġobject": 1181,
      "map": 1182,
      "loye": 1183,
      "venue": 1184,
      "ec": 1185,
      "return": 1186,
      "fficient": 1187,
      "rect": 1188,
      "Ġspec": 1189,
      "reak": 1190,
      "ĠDes": 1191,
      "Ġlow": 1192,
      "fter": 1193,
      "Ġwindow": 1194,
      "point": 1195,
      "oice": 1196,
      "Ġtheir": 1197,
      "Ġrecurs": 1198,
      "Ġprime": 1199,
      "fre": 1200,
      "ices": 1201,
      "sed": 1202,
      "rome": 1203,
      "error": 1204,
      "load": 1205,
      "ifier": 1206,
      "Ġamount": 1207,
      "Ġread": 1208,
      "values": 1209,
      "velo": 1210,
      "uild": 1211,
      "Ġmult": 1212,
      "ell": 1213,
      "Ġser": 1214,
      "Ġpassword": 1215,
      "Ġresponse": 1216,
      "ature": 1217,
      "Ġfloat": 1218,
      "ew": 1219,
      "Ġ//": 1220,
      "ference": 1221,
      "ccur": 1222,
      "Ġonly": 1223,
      "ĠDesign": 1224,
      "cal": 1225,
      "ans": 1226,
      "\".": 1227,
      "ely": 1228,
      "Ġgra": 1229,
      "xtract": 1230,
      "So": 1231,
      "Ġans": 1232,
      "lower": 1233,
      "iful": 1234,
      "autiful": 1235,
      "state": 1236,
      "place": 1237,
      "ĠFor": 1238,
      "ob": 1239,
      "Ġtransa": 1240,
      "velop": 1241,
      "label": 1242,
      "Ġincre": 1243,
      "verage": 1244,
      "alindrome": 1245,
      "ener": 1246,
      "Ġwhere": 1247,
      "ĠList": 1248,
      "Ġmatrix": 1249,
      "quency": 1250,
      "ors": 1251,
      "Ġbreak": 1252,
      "ww": 1253,
      "log": 1254,
      "################": 1255,
      "ays": 1256,
      "ĠBe": 1257,
      "ld": 1258,
      "Ġdate": 1259,
      "Ġdictionaries": 1260,
      "Ġfactorial": 1261,
      "da": 1262,
      "dist": 1263,
      "total": 1264,
      "Ġvisit": 1265,
      "new": 1266,
      "mid": 1267,
      "board": 1268,
      "ĠX": 1269,
      "ĠFibonacci": 1270,
      "Ġz": 1271,
      "Ġisinstance": 1272,
      "dp": 1273,
      "ll": 1274,
      "che": 1275,
      "Ġos": 1276,
      "ively": 1277,
      "og": 1278,
      "Soup": 1279,
      "autifulSoup": 1280,
      "Ġyou": 1281,
      "Ġused": 1282,
      "fig": 1283,
      "rib": 1284,
      "pace": 1285,
      "oc": 1286,
      "Ġoptim": 1287,
      "ĠJSON": 1288,
      "Ġopen": 1289,
      "password": 1290,
      "Ġmemo": 1291,
      "ssible": 1292,
      "Ġapp": 1293,
      "Ġdigit": 1294,
      "nt": 1295,
      "ument": 1296,
      "ura": 1297,
      "Ġuses": 1298,
      "tter": 1299,
      "els": 1300,
      "ages": 1301,
      "Ġefficient": 1302,
      "ĠBeautifulSoup": 1303,
      "des": 1304,
      "**:": 1305,
      "args": 1306,
      "Ġbatch": 1307,
      "amb": 1308,
      "Ġboard": 1309,
      "lst": 1310,
      "emp": 1311,
      "</": 1312,
      "comp": 1313,
      "[\"": 1314,
      "Ġnumpy": 1315,
      "ext": 1316,
      "angu": 1317,
      "fix": 1318,
      "ong": 1319,
      "Ġno": 1320,
      "vector": 1321,
      "ĠAdd": 1322,
      "lib": 1323,
      "em": 1324,
      "Ġcolle": 1325,
      "Ġrequired": 1326,
      "atter": 1327,
      "ous": 1328,
      "ames": 1329,
      "Ġtable": 1330,
      "atures": 1331,
      "ific": 1332,
      "ambda": 1333,
      "response": 1334,
      "old": 1335,
      "wise": 1336,
      "'],": 1337,
      "PI": 1338,
      "Ġmost": 1339,
      "ess": 1340,
      "20": 1341,
      "Ġtype": 1342,
      "ized": 1343,
      "ront": 1344,
      "ĠUse": 1345,
      "led": 1346,
      "Ġlog": 1347,
      "ĠDevelop": 1348,
      "score": 1349,
      "IN": 1350,
      "Ġcomplex": 1351,
      "mov": 1352,
      "Ġarg": 1353,
      "Ġcall": 1354,
      "Ġsame": 1355,
      "Ġpop": 1356,
      "customer": 1357,
      "dir": 1358,
      "uracy": 1359,
      "eras": 1360,
      "Ġchild": 1361,
      "lt": 1362,
      "Ġdataset": 1363,
      "`:": 1364,
      "Ġ)": 1365,
      "ĠĠĠĠĠĠĠĠĠĠĠĠĠĠĠĠĠĠĠĠĠĠĠ": 1366,
      "ĠCal": 1367,
      "Ġexcept": 1368,
      "Ġpossible": 1369,
      "Ġsu": 1370,
      "Str": 1371,
      "alary": 1372,
      "versal": 1373,
      "reeNode": 1374,
      "Ġind": 1375,
      "Ġhand": 1376,
      "case": 1377,
      "Ġacc": 1378,
      "own": 1379,
      "None": 1380,
      "Ġdis": 1381,
      "Ġanagrams": 1382,
      "Ġlink": 1383,
      "Ġoccur": 1384,
      "Ġgreater": 1385,
      "Ġpointer": 1386,
      "vice": 1387,
      "ĠExample": 1388,
      "Ġthere": 1389,
      "Ġcalcul": 1390,
      "((": 1391,
      "mary": 1392,
      "temp": 1393,
      "lose": 1394,
      "example": 1395,
      "Ġresults": 1396,
      "Ġ100": 1397,
      "mand": 1398,
      "group": 1399,
      "ĠSt": 1400,
      "Ġduplic": 1401,
      "Ġad": 1402,
      "Ġdf": 1403,
      "Ġusage": 1404,
      "with": 1405,
      "Ġ>=": 1406,
      "ters": 1407,
      "Ġac": 1408,
      "Ġ}": 1409,
      "Ġpairs": 1410,
      "port": 1411,
      "Ġinitial": 1412,
      "ule": 1413,
      "wer": 1414,
      "Ġcomplexity": 1415,
      "iginal": 1416,
      "param": 1417,
      "df": 1418,
      "Ġtrack": 1419,
      "current": 1420,
      "Ġcell": 1421,
      "Ġdoc": 1422,
      "price": 1423,
      "fil": 1424,
      "Ġmore": 1425,
      "ci": 1426,
      "Ġurl": 1427,
      "Ġ\"\"": 1428,
      "Ġexist": 1429,
      "Ġinvert": 1430,
      "Ġvisited": 1431,
      "Ġallow": 1432,
      "Ġnodes": 1433,
      "Ġemail": 1434,
      "struct": 1435,
      "Ġstep": 1436,
      "ĠNode": 1437,
      "substring": 1438,
      "Ġthem": 1439,
      "ols": 1440,
      "Ġtitle": 1441,
      "lock": 1442,
      "Ġprints": 1443,
      "ĠSort": 1444,
      "AT": 1445,
      "Ġhel": 1446,
      "Ġfe": 1447,
      "ache": 1448,
      "Hel": 1449,
      "keys": 1450,
      "Ġbased": 1451,
      "ĠSe": 1452,
      "Ġitems": 1453,
      "Ġ[[": 1454,
      "Ġ20": 1455,
      "orld": 1456,
      "ines": 1457,
      "ape": 1458,
      "OR": 1459,
      "Ġensures": 1460,
      "Ġrun": 1461,
      "vent": 1462,
      "Ġappro": 1463,
      "inct": 1464,
      "'.": 1465,
      "Ġimplement": 1466,
      "Ġpart": 1467,
      "ET": 1468,
      "ark": 1469,
      "Ġtoken": 1470,
      "ush": 1471,
      "rypt": 1472,
      "bs": 1473,
      "matrix": 1474,
      "river": 1475,
      "search": 1476,
      "Ġstruct": 1477,
      "quent": 1478,
      "ĠTra": 1479,
      "Ġtry": 1480,
      "Ġlists": 1481,
      "ValueError": 1482,
      "ĠK": 1483,
      "Ġlib": 1484,
      "ĠĠĠĠĠĠ": 1485,
      "ĠPrint": 1486,
      "Ġke": 1487,
      "idth": 1488,
      "Ġchecks": 1489,
      "plication": 1490,
      "Ġquery": 1491,
      "inally": 1492,
      "Ġcontaining": 1493,
      "Ġdefaultdict": 1494,
      "Ġinter": 1495,
      "cket": 1496,
      "'))": 1497,
      "message": 1498,
      "Ġexp": 1499,
      "nect": 1500,
      "plot": 1501,
      "ĠCalculate": 1502,
      "rame": 1503,
      "valid": 1504,
      "eric": 1505,
      "ES": 1506,
      "anguage": 1507,
      "Ġdep": 1508,
      "ĠĠĠĠĠĠĠĠĠĠĠĠĠĠĠĠĠĠĠĠĠĠĠĠĠĠĠĠĠĠĠĠ": 1509,
      "Ġav": 1510,
      "Ġlargest": 1511,
      "Ġcolumn": 1512,
      "arg": 1513,
      "Co": 1514,
      "ug": 1515,
      "lean": 1516,
      "Ġmessage": 1517,
      "Ġ[\"": 1518,
      "Ġerror": 1519,
      "Ġprice": 1520,
      "abet": 1521,
      "Ġoriginal": 1522,
      "ified": 1523,
      "grid": 1524,
      "Name": 1525,
      "tered": 1526,
      "Ġoperations": 1527,
      "Ġdistance": 1528,
      ":**": 1529,
      "ready": 1530,
      "work": 1531,
      "choice": 1532,
      "Ġcost": 1533,
      "play": 1534,
      "phabet": 1535,
      "Ġrepresent": 1536,
      "crypt": 1537,
      "Ġextract": 1538,
      "pect": 1539,
      "ighb": 1540,
      "ically": 1541,
      "ĠV": 1542,
      "String": 1543,
      "Ġiterate": 1544,
      "Ġfibonacci": 1545,
      "Ġsentiment": 1546,
      "Ġkeep": 1547,
      "12": 1548,
      "100": 1549,
      "ual": 1550,
      "ĠGet": 1551,
      "Ġback": 1552,
      "erson": 1553,
      "Ġparent": 1554,
      "tri": 1555,
      "__':": 1556,
      "Ġcurr": 1557,
      "En": 1558,
      "Ġact": 1559,
      "Ġ'__": 1560,
      "ango": 1561,
      "lice": 1562,
      "gression": 1563,
      "rand": 1564,
      "ltk": 1565,
      "ming": 1566,
      "ange": 1567,
      "ĠTo": 1568,
      "Ġalready": 1569,
      "Ġpage": 1570,
      "[-": 1571,
      "Ġage": 1572,
      "predict": 1573,
      "Ġmethods": 1574,
      "Ġincrement": 1575,
      "Ġscore": 1576,
      "plt": 1577,
      "Ġrevenue": 1578,
      "cription": 1579,
      "inter": 1580,
      "Ġlabel": 1581,
      "Hello": 1582,
      "ava": 1583,
      "Ġodd": 1584,
      "attern": 1585,
      "Ġcontains": 1586,
      "Ġtransaction": 1587,
      "De": 1588,
      "Ġaverage": 1589,
      "Ġprovi": 1590,
      "Ġdatabase": 1591,
      "Ġwithout": 1592,
      "Ġcolumns": 1593,
      "Ġletter": 1594,
      "andas": 1595,
      "cord": 1596,
      "Ġfrequency": 1597,
      "ps": 1598,
      "itive": 1599,
      "respon": 1600,
      "ĠValueError": 1601,
      "Ġsoup": 1602,
      "Ġcorrespon": 1603,
      "diction": 1604,
      "Ġcounts": 1605,
      "Ġsi": 1606,
      "idx": 1607,
      "ĠLo": 1608,
      "prime": 1609,
      "ger": 1610,
      "until": 1611,
      "ĠFlask": 1612,
      "Ġmove": 1613,
      ":\",": 1614,
      "ber": 1615,
      "Ġmake": 1616,
      "Ġcommon": 1617,
      "Ġlibr": 1618,
      "ql": 1619,
      "trans": 1620,
      "Ġcontin": 1621,
      "]))": 1622,
      "mut": 1623,
      "Ġpointers": 1624,
      "Ġsolution": 1625,
      "first": 1626,
      "Ġ('": 1627,
      "fore": 1628,
      "Ġmy": 1629,
      ".\"\"\"": 1630,
      "Ġsy": 1631,
      "ategor": 1632,
      "digit": 1633,
      "Ġsequence": 1634,
      "ecute": 1635,
      "Ġcollections": 1636,
      "pp": 1637,
      "lay": 1638,
      "ĠY": 1639,
      "raw": 1640,
      "================": 1641,
      "utes": 1642,
      "write": 1643,
      "ids": 1644,
      "negative": 1645,
      "tters": 1646,
      "'}": 1647,
      "Pro": 1648,
      "run": 1649,
      "Ġcorresponding": 1650,
      "Ġuntil": 1651,
      "Ġfl": 1652,
      "Num": 1653,
      "Âł": 1654,
      "Ġdivis": 1655,
      "ting": 1656,
      "ref": 1657,
      "Ġnltk": 1658,
      "Ġdes": 1659,
      "Ġcl": 1660,
      "lic": 1661,
      "Ġpredict": 1662,
      "loc": 1663,
      "AR": 1664,
      "Ġim": 1665,
      "sp": 1666,
      "ĠCount": 1667,
      "Ġpandas": 1668,
      "Ġplayer": 1669,
      "clu": 1670,
      "SE": 1671,
      "amount": 1672,
      "','": 1673,
      "lest": 1674,
      "Ġed": 1675,
      "Ġprocess": 1676,
      "Ġclassify": 1677,
      "Ġwhen": 1678,
      "Ġlst": 1679,
      "content": 1680,
      "Ġlower": 1681,
      "Ġ\",": 1682,
      "ches": 1683,
      "email": 1684,
      "ma": 1685,
      "tag": 1686,
      "Ġinverted": 1687,
      "Di": 1688,
      "Ġmulti": 1689,
      "loyees": 1690,
      "LE": 1691,
      "last": 1692,
      "ename": 1693,
      "Ġgrid": 1694,
      "mallest": 1695,
      "SV": 1696,
      "Ġinsert": 1697,
      "Ġformat": 1698,
      "Ġtraverse": 1699,
      "vious": 1700,
      "ek": 1701,
      "RL": 1702,
      "jango": 1703,
      "ock": 1704,
      "output": 1705,
      "table": 1706,
      "target": 1707,
      "else": 1708,
      "even": 1709,
      "rences": 1710,
      "level": 1711,
      "blem": 1712,
      "info": 1713,
      "angle": 1714,
      "Ġent": 1715,
      "atus": 1716,
      "lection": 1717,
      "ulation": 1718,
      "ĠDef": 1719,
      "ars": 1720,
      "nder": 1721,
      "https": 1722,
      "Ch": 1723,
      "strings": 1724,
      "object": 1725,
      "ert": 1726,
      "ameters": 1727,
      "ton": 1728,
      "its": 1729,
      "Ġopt": 1730,
      "Ġma": 1731,
      "ĠAPI": 1732,
      "Ġ\")": 1733,
      "edi": 1734,
      "wh": 1735,
      "owels": 1736,
      "parser": 1737,
      "sequence": 1738,
      "=['": 1739,
      "Ġmap": 1740,
      "Ġless": 1741,
      "Ġscra": 1742,
      "ason": 1743,
      "Ġus": 1744,
      "Ġhash": 1745,
      "Ġalphabet": 1746,
      "Ġnegative": 1747,
      "ource": 1748,
      "ply": 1749,
      "''": 1750,
      "Ġtask": 1751,
      "False": 1752,
      "lambda": 1753,
      "ull": 1754,
      "du": 1755,
      "page": 1756,
      "Ġ\\": 1757,
      "lient": 1758,
      "yp": 1759,
      "Ġ|": 1760,
      "uments": 1761,
      "uple": 1762,
      "zer": 1763,
      "Ġcombin": 1764,
      "Ġapproach": 1765,
      "St": 1766,
      "tail": 1767,
      "Ġprevious": 1768,
      "Ġpoints": 1769,
      "ges": 1770,
      "ory": 1771,
      "Ġpass": 1772,
      "Ġsqu": 1773,
      "Ġman": 1774,
      "tools": 1775,
      "ĠRecurs": 1776,
      "Ġsys": 1777,
      "Ġsummary": 1778,
      "view": 1779,
      "Ġvector": 1780,
      "ĠPro": 1781,
      "Ġdele": 1782,
      "arning": 1783,
      "stem": 1784,
      "Ġproblem": 1785,
      "Ġmov": 1786,
      "yn": 1787,
      "Ġargs": 1788,
      "Ġmust": 1789,
      "cores": 1790,
      "Ġtf": 1791,
      "ins": 1792,
      "ML": 1793,
      "freq": 1794,
      "Ġdistinct": 1795,
      "Sum": 1796,
      "To": 1797,
      "sv": 1798,
      "quick": 1799,
      "Ġperform": 1800,
      "Ġqu": 1801,
      "Ġmain": 1802,
      "Ġsubtree": 1803,
      "Ar": 1804,
      "NT": 1805,
      "Ġpost": 1806,
      "Se": 1807,
      "]`": 1808,
      "Ġafter": 1809,
      "Ġcontent": 1810,
      "Ġfilter": 1811,
      "ause": 1812,
      "ward": 1813,
      "alf": 1814,
      "cessing": 1815,
      "Ġreversed": 1816,
      "(),": 1817,
      "Ġdire": 1818,
      "div": 1819,
      "âĢ": 1820,
      "ĠTreeNode": 1821,
      "ĉĉĉ": 1822,
      "Ġremov": 1823,
      "bot": 1824,
      "Ġsing": 1825,
      "Ġmean": 1826,
      "range": 1827,
      "Data": 1828,
      "gre": 1829,
      "Ġcolor": 1830,
      "Ġmatch": 1831,
      "field": 1832,
      "thor": 1833,
      "Ġcommand": 1834,
      "ixed": 1835,
      "cending": 1836,
      "ersion": 1837,
      "Ġneed": 1838,
      "ĠUp": 1839,
      "ĠĠĠĠĠĠĠĠĠ": 1840,
      "parse": 1841,
      "Class": 1842,
      "ization": 1843,
      "Ġstructure": 1844,
      "hn": 1845,
      "Ġiterates": 1846,
      "Ġ(`": 1847,
      "Ġdifference": 1848,
      "Ġcre": 1849,
      "utton": 1850,
      "RE": 1851,
      "hel": 1852,
      "ner": 1853,
      "colum": 1854,
      "cor": 1855,
      "{}": 1856,
      "dicts": 1857,
      "ome": 1858,
      "Ġatt": 1859,
      "ĠĠĠĠĠĠĠĠĠĠĠĠĊ": 1860,
      "api": 1861,
      "Ġtraversal": 1862,
      "Ġ''.": 1863,
      "ments": 1864,
      "Ġarea": 1865,
      "Ġduplicates": 1866,
      "Ġmerged": 1867,
      "ĠUsing": 1868,
      "IT": 1869,
      "bal": 1870,
      "Ġ12": 1871,
      "valu": 1872,
      "Ġactiv": 1873,
      "float": 1874,
      "unct": 1875,
      "ĠJava": 1876,
      "pair": 1877,
      "().": 1878,
      "dictions": 1879,
      "Ġprev": 1880,
      "not": 1881,
      "Ġlanguage": 1882,
      "mean": 1883,
      "Ġdiffe": 1884,
      "der": 1885,
      "cost": 1886,
      "Ġsingle": 1887,
      "mb": 1888,
      "request": 1889,
      "lect": 1890,
      "Ġbefore": 1891,
      "Enter": 1892,
      "Ġremain": 1893,
      "Ġgo": 1894,
      "child": 1895,
      "Ġdesc": 1896,
      "ĠThen": 1897,
      "Ġgener": 1898,
      "ĠReturns": 1899,
      "udent": 1900,
      "md": 1901,
      "opt": 1902,
      "Ġallows": 1903,
      "layers": 1904,
      "front": 1905,
      "ose": 1906,
      "rel": 1907,
      "'t": 1908,
      "mit": 1909,
      "host": 1910,
      "www": 1911,
      "ĠUpdate": 1912,
      "\"))": 1913,
      "ten": 1914,
      "wo": 1915,
      "uff": 1916,
      "Ġquick": 1917,
      "loyee": 1918,
      "default": 1919,
      "ector": 1920,
      "route": 1921,
      "Ġwrite": 1922,
      "\",\"": 1923,
      "ĠHT": 1924,
      ".\")": 1925,
      "ning": 1926,
      "ted": 1927,
      "graph": 1928,
      "lis": 1929,
      "reverse": 1930,
      "Ġpy": 1931,
      "randint": 1932,
      "dition": 1933,
      "very": 1934,
      "Ġpalindrome": 1935,
      "Ġgame": 1936,
      "Ġgraph": 1937,
      "amp": 1938,
      "cause": 1939,
      "Ġsmallest": 1940,
      "('/": 1941,
      "64": 1942,
      "Ġbs": 1943,
      "site": 1944,
      "Ġq": 1945,
      "Ġmet": 1946,
      "ility": 1947,
      "icense": 1948,
      "Ġascending": 1949,
      "post": 1950,
      "lease": 1951,
      "Ġpresent": 1952,
      "ĠComp": 1953,
      "ĠDefine": 1954,
      "cle": 1955,
      "Ġbecause": 1956,
      "asses": 1957,
      "ipp": 1958,
      "chars": 1959,
      "Ġparse": 1960,
      "Ġvariables": 1961,
      "RO": 1962,
      "Ġsm": 1963,
      "common": 1964,
      "antity": 1965,
      "Len": 1966,
      "Ġstate": 1967,
      "ĠIndex": 1968,
      "ĠConvert": 1969,
      "replace": 1970,
      "Ġheight": 1971,
      "Ġcalculates": 1972,
      "Ġtake": 1973,
      "ĠCSV": 1974,
      "Ġenum": 1975,
      "cat": 1976,
      "Ġsplit": 1977,
      "Dict": 1978,
      "ie": 1979,
      "CT": 1980,
      "Ġtyp": 1981,
      "tect": 1982,
      ":-": 1983,
      "keras": 1984,
      "0000": 1985,
      "execute": 1986,
      "Ġdoes": 1987,
      "sted": 1988,
      "vie": 1989,
      "Ġactivation": 1990,
      "pred": 1991,
      "Ġthey": 1992,
      "imal": 1993,
      "Ġdb": 1994,
      "Ġinitialize": 1995,
      "ohn": 1996,
      "Ġtrue": 1997,
      "imit": 1998,
      "cii": 1999,
      "AL": 2000,
      "med": 2001,
      ")))": 2002,
      "Ġcondition": 2003,
      "Ġcap": 2004,
      "Ġsorting": 2005,
      "models": 2006,
      "Ġiterable": 2007,
      "ler": 2008,
      "Ġsp": 2009,
      "25": 2010,
      "dif": 2011,
      "transa": 2012,
      "Ġstarting": 2013,
      "Field": 2014,
      "salary": 2015,
      "Ġversion": 2016,
      "Ġiteration": 2017,
      "ick": 2018,
      "names": 2019,
      "Ġabs": 2020,
      "ĠIndexError": 2021,
      "dius": 2022,
      "--------------------------------": 2023,
      "Con": 2024,
      "dle": 2025,
      "env": 2026,
      "Ġfinal": 2027,
      "Ġspace": 2028,
      "util": 2029,
      "Ġwhether": 2030,
      "Ġload": 2031,
      "Ġbook": 2032,
      "Ġupper": 2033,
      "Ġtag": 2034,
      "ĠDriver": 2035,
      "DE": 2036,
      "late": 2037,
      "unique": 2038,
      "imes": 2039,
      "Ġcompute": 2040,
      "Ġdatetime": 2041,
      "ĠConstruct": 2042,
      "Ġcontinue": 2043,
      "ĠFind": 2044,
      "top": 2045,
      "Regression": 2046,
      "Ġlinear": 2047,
      "Ex": 2048,
      "Ġ25": 2049,
      "{'": 2050,
      "back": 2051,
      "ius": 2052,
      "ody": 2053,
      "ĠURL": 2054,
      "formation": 2055,
      "Ġenumerate": 2056,
      "close": 2057,
      "Ġbu": 2058,
      "ĠImplement": 2059,
      "iple": 2060,
      "Ġfreq": 2061,
      "ru": 2062,
      "Ġ15": 2063,
      "ĠAr": 2064,
      "Ġtk": 2065,
      "Ġbeen": 2066,
      "duplic": 2067,
      "Ġflask": 2068,
      "asoning": 2069,
      "ah": 2070,
      "Ġmark": 2071,
      "ĠFunction": 2072,
      "ets": 2073,
      "cursor": 2074,
      "Ġinst": 2075,
      "Ġbas": 2076,
      "Ġ'.": 2077,
      "ĠQ": 2078,
      "ender": 2079,
      "achine": 2080,
      "Ġanswer": 2081,
      ".__": 2082,
      "ular": 2083,
      "Ġcounter": 2084,
      "Ġoccurrence": 2085,
      "Ġbuild": 2086,
      "link": 2087,
      "Ġhigh": 2088,
      "cent": 2089,
      "Ġconf": 2090,
      "Ġprefix": 2091,
      "shape": 2092,
      "Ġdigits": 2093,
      "uring": 2094,
      "Ġsour": 2095,
      "Ġpe": 2096,
      "Ġbest": 2097,
      "process": 2098,
      "elements": 2099,
      "Ġrecursive": 2100,
      "Ġrecord": 2101,
      "Ġhalf": 2102,
      "ĠSplit": 2103,
      "Ġ'''": 2104,
      "ormal": 2105,
      "stack": 2106,
      "ither": 2107,
      "resh": 2108,
      "Ġdefine": 2109,
      "ĠFinally": 2110,
      "eded": 2111,
      "Ġinclu": 2112,
      "Ġ11": 2113,
      "Ġapplication": 2114,
      "digits": 2115,
      "Ġcons": 2116,
      "Ġpermut": 2117,
      "Count": 2118,
      "Ġaut": 2119,
      "Ġyour": 2120,
      "Ġupd": 2121,
      "transform": 2122,
      "aly": 2123,
      "ascii": 2124,
      "Ġdepth": 2125,
      "Res": 2126,
      "cd": 2127,
      "longest": 2128,
      "ities": 2129,
      "izes": 2130,
      "Ġprogramming": 2131,
      ":]": 2132,
      "ful": 2133,
      "pack": 2134,
      "dep": 2135,
      "transactions": 2136,
      "PO": 2137,
      "ash": 2138,
      "Ġrows": 2139,
      "unctu": 2140,
      "hest": 2141,
      "Ġnested": 2142,
      "...": 2143,
      "Ġdifferent": 2144,
      "32": 2145,
      "Tree": 2146,
      "Ġreg": 2147,
      "Ġpush": 2148,
      "config": 2149,
      "Ġtwe": 2150,
      "Ġappend": 2151,
      "Ġclean": 2152,
      "Ġwork": 2153,
      "Ġ')": 2154,
      "Ġadding": 2155,
      "exp": 2156,
      "palindrome": 2157,
      "Ġcsv": 2158,
      "cessary": 2159,
      "Ġaccuracy": 2160,
      "Ġye": 2161,
      "Ġmodule": 2162,
      "employees": 2163,
      "FS": 2164,
      "Ġtri": 2165,
      "Ġart": 2166,
      "Ġsteps": 2167,
      "upper": 2168,
      "points": 2169,
      "mes": 2170,
      "heap": 2171,
      "etch": 2172,
      "apping": 2173,
      "Input": 2174,
      "Ġserver": 2175,
      "John": 2176,
      "cap": 2177,
      "td": 2178,
      "Ġsets": 2179,
      "Ġcomput": 2180,
      "inf": 2181,
      "icle": 2182,
      "Dense": 2183,
      "bug": 2184,
      "Ġph": 2185,
      "Ġdescending": 2186,
      "Ġzer": 2187,
      "ross": 2188,
      "Ġmedi": 2189,
      "etwork": 2190,
      "Ġgroups": 2191,
      "ites": 2192,
      "ural": 2193,
      "Ġform": 2194,
      "intain": 2195,
      "Ġfeatures": 2196,
      "dis": 2197,
      "AB": 2198,
      "iding": 2199,
      "Ġneighb": 2200,
      "Ġlevel": 2201,
      "Ġlearning": 2202,
      "Id": 2203,
      "Ġmis": 2204,
      "Ġparameters": 2205,
      "remove": 2206,
      "Ġtrans": 2207,
      "Ġcalled": 2208,
      "ĠLicense": 2209,
      "Ġclassifier": 2210,
      "Ġotherwise": 2211,
      "Element": 2212,
      "Ġthree": 2213,
      "Ġwithin": 2214,
      "book": 2215,
      "Ġwebsite": 2216,
      "Ġweight": 2217,
      "UT": 2218,
      "################################": 2219,
      "Sort": 2220,
      "wap": 2221,
      "Ġrepe": 2222,
      "Ġsim": 2223,
      "Ġhtml": 2224,
      "[::-": 2225,
      "position": 2226,
      "Ġremaining": 2227,
      "Ġmath": 2228,
      "coded": 2229,
      "check": 2230,
      "ision": 2231,
      "Ġ(\"": 2232,
      "Ġdfs": 2233,
      "Ġhandle": 2234,
      "Ġdisplay": 2235,
      "Ġsalary": 2236,
      "Ġplt": 2237,
      "Ġpositive": 2238,
      "Ġevery": 2239,
      "ĠĠĠĠĠĠĠĠĠĠĠĠ": 2240,
      "valuate": 2241,
      "Ġfield": 2242,
      "Ġkeras": 2243,
      "charact": 2244,
      "Ġadj": 2245,
      "Ġexists": 2246,
      "Ġperson": 2247,
      "ublic": 2248,
      "Ġlook": 2249,
      "anagram": 2250,
      "features": 2251,
      "Ġident": 2252,
      "Ġmultiple": 2253,
      "unc": 2254,
      "Ġ',": 2255,
      "ighest": 2256,
      "Ġlibrary": 2257,
      "Ġpattern": 2258,
      "Ġeither": 2259,
      "counts": 2260,
      "Ġspecified": 2261,
      "ĠLoad": 2262,
      "Classifier": 2263,
      "'):": 2264,
      "org": 2265,
      "Ġbot": 2266,
      "000": 2267,
      "Ġsuch": 2268,
      "Ġexpression": 2269,
      "Ġalso": 2270,
      "Ġnecessary": 2271,
      "Ġ30": 2272,
      "Ġmiddle": 2273,
      "ification": 2274,
      "Ġabo": 2275,
      "version": 2276,
      "sign": 2277,
      "inte": 2278,
      "flow": 2279,
      "factor": 2280,
      "ince": 2281,
      "Ġcustom": 2282,
      "parent": 2283,
      "ĠHTML": 2284,
      "Vector": 2285,
      "Ġ@": 2286,
      "Ġsubarray": 2287,
      "Ġheap": 2288,
      "Ġmaintain": 2289,
      "Ġside": 2290,
      "Ġfast": 2291,
      "ader": 2292,
      "Ġoperation": 2293,
      "Ġinformation": 2294,
      "lem": 2295,
      "method": 2296,
      "Ġchecking": 2297,
      "Ġsource": 2298,
      "reg": 2299,
      "heit": 2300,
      "ivot": 2301,
      "renheit": 2302,
      "Ġvowels": 2303,
      "Ġencrypt": 2304,
      "distance": 2305,
      "Ġlabels": 2306,
      "gn": 2307,
      "lat": 2308,
      "erature": 2309,
      "go": 2310,
      "Ġdetect": 2311,
      "ĠApp": 2312,
      "ensor": 2313,
      "doc": 2314,
      "width": 2315,
      "Ġtuple": 2316,
      "Ġob": 2317,
      "player": 2318,
      "ahrenheit": 2319,
      "Time": 2320,
      "ey": 2321,
      "Ġfiles": 2322,
      "Number": 2323,
      "pol": 2324,
      "accuracy": 2325,
      "Ġindices": 2326,
      "mod": 2327,
      "Ġbasic": 2328,
      "create": 2329,
      "two": 2330,
      "Ġfront": 2331,
      "olum": 2332,
      "Ġinputs": 2333,
      "lict": 2334,
      "ĠSet": 2335,
      "Length": 2336,
      "ling": 2337,
      "attr": 2338,
      "Ġdel": 2339,
      "inear": 2340,
      "Ġaddress": 2341,
      "soup": 2342,
      "io": 2343,
      "istic": 2344,
      "connect": 2345,
      "Ġcompare": 2346,
      "Ġrecursively": 2347,
      "Ġau": 2348,
      "Ġ--": 2349,
      "ĠID": 2350,
      "Ġconfig": 2351,
      "ĠBuild": 2352,
      "50": 2353,
      "99": 2354,
      "Ġnames": 2355,
      "strip": 2356,
      "nection": 2357,
      "Ġlinked": 2358,
      "Ġhelper": 2359,
      "Ġsquare": 2360,
      "EN": 2361,
      "Max": 2362,
      "no": 2363,
      "revenue": 2364,
      "sec": 2365,
      "Return": 2366,
      "unctuation": 2367,
      "File": 2368,
      "We": 2369,
      "ccess": 2370,
      "rate": 2371,
      "window": 2372,
      "area": 2373,
      "ctory": 2374,
      "totals": 2375,
      "status": 2376,
      "box": 2377,
      "ĠWorld": 2378,
      "Ġfiltered": 2379,
      "Ġver": 2380,
      "Ġnth": 2381,
      "server": 2382,
      "Ġyield": 2383,
      "Ġsolve": 2384,
      "'),": 2385,
      "').": 2386,
      "ts": 2387,
      "hen": 2388,
      "Ġjsonify": 2389,
      "Script": 2390,
      "np": 2391,
      "ove": 2392,
      "Ġreplace": 2393,
      "ĠOptim": 2394,
      "while": 2395,
      ".\"": 2396,
      "ats": 2397,
      "Ġdeter": 2398,
      "address": 2399,
      "ID": 2400,
      "tom": 2401,
      "Ġbit": 2402,
      "ĠOther": 2403,
      "ocstring": 2404,
      "Ġavo": 2405,
      "Ġalphabetically": 2406,
      "})": 2407,
      "ĠDi": 2408,
      "year": 2409,
      "arity": 2410,
      "ĠMake": 2411,
      "day": 2412,
      "gen": 2413,
      "Ġord": 2414,
      "Ġsql": 2415,
      "most": 2416,
      "ale": 2417,
      "do": 2418,
      "ather": 2419,
      "other": 2420,
      "Ġtransactions": 2421,
      "Sub": 2422,
      "ĠTrain": 2423,
      "relu": 2424,
      "Ġsmall": 2425,
      "Ġmedian": 2426,
      "selection": 2427,
      "AC": 2428,
      "Ġtimes": 2429,
      "resents": 2430,
      "plan": 2431,
      "ÂłÂł": 2432,
      "qr": 2433,
      "scores": 2434,
      "task": 2435,
      "An": 2436,
      "ital": 2437,
      "ĠOtherwise": 2438,
      "Ġletters": 2439,
      "ĠBase": 2440,
      ":',": 2441,
      "ls": 2442,
      "ware": 2443,
      "hed": 2444,
      "rap": 2445,
      "Ġsn": 2446,
      "ĠAfter": 2447,
      "show": 2448,
      "Ġensure": 2449,
      "mine": 2450,
      "rc": 2451,
      "Ġter": 2452,
      "Ġfo": 2453,
      "Ġcorrect": 2454,
      "Ġsimple": 2455,
      "height": 2456,
      "Vectorizer": 2457,
      "ran": 2458,
      "Ġnumeric": 2459,
      "Ġiterating": 2460,
      "Ġhelp": 2461,
      "]])": 2462,
      "oring": 2463,
      "Ġmon": 2464,
      "Index": 2465,
      "Ġarguments": 2466,
      "Ġdelete": 2467,
      "ike": 2468,
      "Ġmode": 2469,
      "Ġfunctions": 2470,
      "Ġmeans": 2471,
      "[:,": 2472,
      "Ġrepresents": 2473,
      ".,": 2474,
      "source": 2475,
      "Ġrespect": 2476,
      "Ġstop": 2477,
      "tract": 2478,
      "ception": 2479,
      "hat": 2480,
      "asing": 2481,
      "Ġdec": 2482,
      "rows": 2483,
      "function": 2484,
      "ailable": 2485,
      "Ġconflict": 2486,
      "For": 2487,
      "assert": 2488,
      "Ġconst": 2489,
      "11": 2490,
      "TreeNode": 2491,
      "ging": 2492,
      "Ġag": 2493,
      "Ġcategor": 2494,
      "Ġmak": 2495,
      "ability": 2496,
      "ĉĉĉĉ": 2497,
      "description": 2498,
      "xx": 2499,
      "ĠĠĠĠĠĠĠĠĠĠĠĠĠ": 2500,
      "Ġneeded": 2501,
      "formed": 2502,
      "Ġjob": 2503,
      "Ġparser": 2504,
      "tokenize": 2505,
      "be": 2506,
      "fer": 2507,
      "insert": 2508,
      "Ġsup": 2509,
      "Ġdown": 2510,
      "the": 2511,
      "Ġ.": 2512,
      "Valid": 2513,
      "compile": 2514,
      "Ġusers": 2515,
      ")`": 2516,
      "QL": 2517,
      "ssion": 2518,
      "username": 2519,
      "Ġsent": 2520,
      "dataset": 2521,
      "pairs": 2522,
      "OD": 2523,
      "ares": 2524,
      "Ġwidth": 2525,
      "utf": 2526,
      ")-": 2527,
      "sample": 2528,
      "ipher": 2529,
      "Set": 2530,
      "uration": 2531,
      "Ġreturned": 2532,
      "Ġdivisible": 2533,
      "cies": 2534,
      "frame": 2535,
      "ĠData": 2536,
      "quential": 2537,
      "ME": 2538,
      "side": 2539,
      "ĠTest": 2540,
      "ĠLinear": 2541,
      "linear": 2542,
      "wargs": 2543,
      "ional": 2544,
      "izing": 2545,
      "paces": 2546,
      "Ġrecursion": 2547,
      "Ġefficiently": 2548,
      "Ġyear": 2549,
      "IC": 2550,
      "ores": 2551,
      "ĠPar": 2552,
      "andom": 2553,
      "Ġoptimize": 2554,
      "Ġlowercase": 2555,
      "Python": 2556,
      "Pri": 2557,
      "Ġthese": 2558,
      "Ġsign": 2559,
      "Ġwas": 2560,
      "Ġtraining": 2561,
      "part": 2562,
      "ving": 2563,
      "Ġclose": 2564,
      "letters": 2565,
      "Ġlong": 2566,
      "Ġbut": 2567,
      "unk": 2568,
      "iss": 2569,
      "omain": 2570,
      "Ġattrib": 2571,
      "weight": 2572,
      "game": 2573,
      "iterable": 2574,
      "obj": 2575,
      "++": 2576,
      "ulate": 2577,
      "Ġadded": 2578,
      "Ġarrays": 2579,
      "cret": 2580,
      "Le": 2581,
      "medi": 2582,
      "ĠUn": 2583,
      "Ġfalse": 2584,
      "Ġgen": 2585,
      "filename": 2586,
      "ness": 2587,
      "ences": 2588,
      "ctionary": 2589,
      "omial": 2590,
      "Ġhighest": 2591,
      "Ġenco": 2592,
      "(-": 2593,
      "(__": 2594,
      "aise": 2595,
      "body": 2596,
      "ze": 2597,
      "Ġdataclass": 2598,
      "columns": 2599,
      "LO": 2600,
      "rear": 2601,
      "Ġdescription": 2602,
      "Ġlambda": 2603,
      "Reasoning": 2604,
      "sentiment": 2605,
      "ording": 2606,
      "diff": 2607,
      "=(": 2608,
      "Ġ\"))": 2609,
      "Ġcopy": 2610,
      "Ġchoice": 2611,
      "Ġconn": 2612,
      "feature": 2613,
      "Ġmoves": 2614,
      "planation": 2615,
      "Ġpredictions": 2616,
      "Ġmodels": 2617,
      "Ġiterator": 2618,
      "Ġaccording": 2619,
      "!\")": 2620,
      "generate": 2621,
      "Ġfit": 2622,
      "Ġstock": 2623,
      "traversal": 2624,
      "Par": 2625,
      "Ġemployee": 2626,
      "Ġitertools": 2627,
      "Ġspecific": 2628,
      "`)": 2629,
      "ia": 2630,
      "ĠĠĠĊ": 2631,
      "Ġdecre": 2632,
      "merge": 2633,
      "rit": 2634,
      "Ġmachine": 2635,
      "ik": 2636,
      "try": 2637,
      "Ġlike": 2638,
      "ubble": 2639,
      "Ġsome": 2640,
      "color": 2641,
      "Ġargument": 2642,
      "Ġ&": 2643,
      "Ġhttp": 2644,
      "peed": 2645,
      "Ġshort": 2646,
      "ams": 2647,
      "ales": 2648,
      "lines": 2649,
      "enu": 2650,
      "TP": 2651,
      "af": 2652,
      "}\")": 2653,
      "Ġhost": 2654,
      "Type": 2655,
      "ings": 2656,
      "Ġour": 2657,
      "lobal": 2658,
      "image": 2659,
      "Ġmovie": 2660,
      "GET": 2661,
      "ank": 2662,
      "ordin": 2663,
      "uples": 2664,
      "Ġsorts": 2665,
      "Ġmem": 2666,
      "Ġchildren": 2667,
      "plotlib": 2668,
      "tf": 2669,
      "umps": 2670,
      "Ġunder": 2671,
      "Ġduplicate": 2672,
      "ĠAppend": 2673,
      "Ġsmaller": 2674,
      ")+": 2675,
      "Ġpivot": 2676,
      "Ġ</": 2677,
      "Ġdiff": 2678,
      "ĠRecursive": 2679,
      ");": 2680,
      "gin": 2681,
      "riter": 2682,
      "Ġstarts": 2683,
      "Ġidx": 2684,
      "characters": 2685,
      "15": 2686,
      "land": 2687,
      "Ġpres": 2688,
      "Ġlibraries": 2689,
      "clf": 2690,
      "ority": 2691,
      "Ġautom": 2692,
      "Ġsqlite": 2693,
      "sys": 2694,
      "local": 2695,
      "Ġcho": 2696,
      "match": 2697,
      "itespace": 2698,
      "Ġmissing": 2699,
      "30": 2700,
      "down": 2701,
      "squ": 2702,
      "ones": 2703,
      "Ġclo": 2704,
      "Ġevent": 2705,
      "Ġ(-": 2706,
      "Ġzero": 2707,
      "ĠRead": 2708,
      "categor": 2709,
      "xml": 2710,
      "section": 2711,
      "open": 2712,
      "usr": 2713,
      "ĠCounter": 2714,
      "POST": 2715,
      "He": 2716,
      "lar": 2717,
      "ved": 2718,
      "ĠĠĠĠĠĠĊ": 2719,
      "Ġsl": 2720,
      "Ġblock": 2721,
      "andard": 2722,
      "Array": 2723,
      "dim": 2724,
      "ait": 2725,
      "layer": 2726,
      "Ġdays": 2727,
      "Ġ\"__": 2728,
      "come": 2729,
      "Ġstored": 2730,
      "labels": 2731,
      "Ġprovided": 2732,
      "ĠPre": 2733,
      "frequency": 2734,
      "Ġdocument": 2735,
      "Ne": 2736,
      "hand": 2737,
      "ĠĠĠĠĠĠĠĠĠĠĠĠĠĠĠĠĠĠĠĠĠĠĠĠĠĠĠ": 2738,
      "ĠMove": 2739,
      "params": 2740,
      "14": 2741,
      "NA": 2742,
      "ared": 2743,
      "Ġimp": 2744,
      "met": 2745,
      "ances": 2746,
      "()]": 2747,
      "__\":": 2748,
      "ĠFirst": 2749,
      "ĠStr": 2750,
      "SER": 2751,
      "nel": 2752,
      "rees": 2753,
      "Ġsample": 2754,
      "Ġproper": 2755,
      "uster": 2756,
      "classes": 2757,
      "hello": 2758,
      "Ġconflicts": 2759,
      "az": 2760,
      "pattern": 2761,
      "tes": 2762,
      "letter": 2763,
      "utive": 2764,
      "Ġoccurrences": 2765,
      "ĠRecursively": 2766,
      "Ġ,": 2767,
      "Ġredu": 2768,
      "Ġday": 2769,
      "()`": 2770,
      "ĠImport": 2771,
      "Ġ{\"": 2772,
      "conn": 2773,
      "================================": 2774,
      "Ġlookup": 2775,
      "man": 2776,
      "sy": 2777,
      "ilt": 2778,
      "Ġfinds": 2779,
      "quences": 2780,
      "elsius": 2781,
      "Ġcombinations": 2782,
      "ynam": 2783,
      "ĠOptimize": 2784,
      "ĠLinearRegression": 2785,
      "img": 2786,
      "Ġexample": 2787,
      "ĠRaise": 2788,
      "Ġrear": 2789,
      "ĠĠĠĠĠĠĠĠĠĠ": 2790,
      "ĠGiven": 2791,
      "ached": 2792,
      "ĠJavaScript": 2793,
      "secutive": 2794,
      "odd": 2795,
      "optim": 2796,
      "Ġax": 2797,
      "std": 2798,
      "Ġdest": 2799,
      "ĠMult": 2800,
      "pected": 2801,
      "Ġmultiply": 2802,
      "ints": 2803,
      "Ġcomplement": 2804,
      "Ġmatplotlib": 2805,
      "Ġoptions": 2806,
      "ily": 2807,
      "Ġconnect": 2808,
      "olution": 2809,
      "ueue": 2810,
      "__)": 2811,
      "ircle": 2812,
      "Ġpermutations": 2813,
      "Ġstores": 2814,
      "empty": 2815,
      "ĠStack": 2816,
      "Ġtokens": 2817,
      "Ġsimp": 2818,
      "fibonacci": 2819,
      "Ġreach": 2820,
      "Ġpack": 2821,
      "ĠCh": 2822,
      "islice": 2823,
      "iron": 2824,
      "Ġdequeue": 2825,
      "Ġfeature": 2826,
      "alyzer": 2827,
      "now": 2828,
      "Ġway": 2829,
      "copy": 2830,
      "Ġsnipp": 2831,
      "ency": 2832,
      "Ġstudent": 2833,
      "trie": 2834,
      "ION": 2835,
      "]):": 2836,
      "rop": 2837,
      "Ġsepar": 2838,
      "tem": 2839,
      "Ġprices": 2840,
      "Ġremoving": 2841,
      "lish": 2842,
      "ĠCode": 2843,
      "Ġleast": 2844,
      "Ġsystem": 2845,
      "01": 2846,
      "45": 2847,
      "den": 2848,
      "Ġcent": 2849,
      "ends": 2850,
      "###": 2851,
      "ĠAN": 2852,
      "Ġloc": 2853,
      "Ġ50": 2854,
      "except": 2855,
      "dictionary": 2856,
      "'''": 2857,
      "ynamic": 2858,
      "IS": 2859,
      "Ġ]": 2860,
      "Ġtensor": 2861,
      "Ġnetwork": 2862,
      "ĠWhen": 2863,
      "Ġsums": 2864,
      "Ġindic": 2865,
      "Ġcleaned": 2866,
      "iew": 2867,
      "ĠPo": 2868,
      "update": 2869,
      "Ġwhitespace": 2870,
      "Ġmetri": 2871,
      "]+": 2872,
      "mode": 2873,
      "txt": 2874,
      "requi": 2875,
      "Ġaction": 2876,
      "Ġrender": 2877,
      "Ġbound": 2878,
      "processing": 2879,
      "\"])": 2880,
      "django": 2881,
      "und": 2882,
      "Ġanother": 2883,
      "Ġsubtract": 2884,
      "Ġpopulation": 2885,
      "Ġgues": 2886,
      "Ġchange": 2887,
      "orest": 2888,
      "ĠLoop": 2889,
      "Text": 2890,
      "Ġwin": 2891,
      "Ġdeque": 2892,
      "Ġquantity": 2893,
      "Ġdirectory": 2894,
      "rest": 2895,
      "debug": 2896,
      "alph": 2897,
      "elif": 2898,
      "Ġconstruct": 2899,
      "Ġhold": 2900,
      "Ġplace": 2901,
      "bl": 2902,
      "pi": 2903,
      "stamp": 2904,
      "Ġclient": 2905,
      "acity": 2906,
      "depth": 2907,
      "dest": 2908,
      "Ġmapping": 2909,
      "Ġdocstring": 2910,
      "Of": 2911,
      "block": 2912,
      "twe": 2913,
      "Ġoptimal": 2914,
      "qrt": 2915,
      "NB": 2916,
      "Ser": 2917,
      "face": 2918,
      "ider": 2919,
      "Ġdetermine": 2920,
      "16": 2921,
      "atches": 2922,
      "radius": 2923,
      "prefix": 2924,
      "Ġtypes": 2925,
      "Ġmaking": 2926,
      "AS": 2927,
      "idf": 2928,
      "apple": 2929,
      "Ġhere": 2930,
      "Ġaccess": 2931,
      "tails": 2932,
      "Frame": 2933,
      "Ġretrie": 2934,
      "Ġdefin": 2935,
      "Ġ32": 2936,
      "NU": 2937,
      "ird": 2938,
      "ĠLog": 2939,
      "Ġonce": 2940,
      "duplicates": 2941,
      "Po": 2942,
      "oin": 2943,
      "ĠGener": 2944,
      "ĠTraverse": 2945,
      "Ġpeek": 2946,
      "average": 2947,
      "binary": 2948,
      "Ġinstance": 2949,
      "Ġproces": 2950,
      "Ġavailable": 2951,
      "Ġinclude": 2952,
      "Ġsnippet": 2953,
      "Ġtensorflow": 2954,
      "seq": 2955,
      "device": 2956,
      "vals": 2957,
      "abc": 2958,
      "ĠDocstring": 2959,
      "Ġenv": 2960,
      "Ġlarger": 2961,
      "loads": 2962,
      "location": 2963,
      "Ġedges": 2964,
      "largest": 2965,
      "Finally": 2966,
      "over": 2967,
      "Ġcity": 2968,
      "ĠĠĠĠĠĠĠĠĠĠĠĠĠĠ": 2969,
      "Add": 2970,
      "Ġcompar": 2971,
      "Ġscraper": 2972,
      "OT": 2973,
      "alformed": 2974,
      "ftware": 2975,
      "'].": 2976,
      "author": 2977,
      "Ġseries": 2978,
      "Word": 2979,
      "dele": 2980,
      "Ġgcd": 2981,
      "Ġthread": 2982,
      "ayes": 2983,
      "ĠOne": 2984,
      "Ġgrouped": 2985,
      "dit": 2986,
      "Ġlayer": 2987,
      "ana": 2988,
      "datetime": 2989,
      "Ġreader": 2990,
      "filter": 2991,
      "ĠDictionary": 2992,
      "Ġselect": 2993,
      "ameter": 2994,
      "ĠExtract": 2995,
      "ĠInput": 2996,
      "city": 2997,
      "uz": 2998,
      "hens": 2999,
      "Ġrev": 3000,
      "Ġlimit": 3001,
      "ouse": 3002,
      "views": 3003,
      "Ġidentify": 3004,
      "Me": 3005,
      "Un": 3006,
      "ook": 3007,
      "}')": 3008,
      "orm": 3009,
      "urse": 3010,
      "Ġenqueue": 3011,
      "Ġspecial": 3012,
      "IL": 3013,
      "Mat": 3014,
      "Path": 3015,
      "action": 3016,
      "population": 3017,
      "Ġpositions": 3018,
      "Ġflag": 3019,
      "Ġinstall": 3020,
      "=[": 3021,
      "Ġnormal": 3022,
      "Ġ[(": 3023,
      "tokens": 3024,
      "-%": 3025,
      "kwargs": 3026,
      "send": 3027,
      "Ġchunk": 3028,
      "Ġlinks": 3029,
      "Ġimplementation": 3030,
      "Ġheapq": 3031,
      "Ġavoid": 3032,
      "uzz": 3033,
      "UR": 3034,
      "aive": 3035,
      "net": 3036,
      "rehens": 3037,
      "Ġcand": 3038,
      "Ġport": 3039,
      "Ġbl": 3040,
      "Ġdistrib": 3041,
      "Ġprovides": 3042,
      "ĠCountVectorizer": 3043,
      "fields": 3044,
      "Ġcreates": 3045,
      "correct": 3046,
      "children": 3047,
      "Result": 3048,
      "Line": 3049,
      "ote": 3050,
      "queries": 3051,
      "Ġcreating": 3052,
      "column": 3053,
      "ĠArgs": 3054,
      "ĠÐ": 3055,
      "Ġdone": 3056,
      "Ġdynamic": 3057,
      "Ġobjects": 3058,
      "groups": 3059,
      "anagrams": 3060,
      "Ġcnt": 3061,
      "pyplot": 3062,
      ":\")": 3063,
      "bar": 3064,
      "encode": 3065,
      "Ġswap": 3066,
      "Ġsince": 3067,
      "Ġ'/": 3068,
      "neighb": 3069,
      "quencies": 3070,
      "Ġmodify": 3071,
      "itertools": 3072,
      "argument": 3073,
      "CD": 3074,
      "Test": 3075,
      "build": 3076,
      "gers": 3077,
      "Ġpol": 3078,
      "Ġpower": 3079,
      "Ġcomprehens": 3080,
      "ED": 3081,
      "proper": 3082,
      "Ġoperator": 3083,
      "Ġfilename": 3084,
      "Ġdir": 3085,
      "lob": 3086,
      "Ġtech": 3087,
      "poch": 3088,
      "Ġtemperature": 3089,
      "Ġimage": 3090,
      "Ġbottom": 3091,
      "Ġclosest": 3092,
      "Ġpreser": 3093,
      "lap": 3094,
      "sent": 3095,
      "Ġslow": 3096,
      "ives": 3097,
      "']]": 3098,
      "commit": 3099,
      "Ġusername": 3100,
      "Ġcases": 3101,
      "Char": 3102,
      "balance": 3103,
      "Ġupdates": 3104,
      "AN": 3105,
      "pes": 3106,
      "round": 3107,
      "Ġplay": 3108,
      "123": 3109,
      "Ġflat": 3110,
      "Ġrecords": 3111,
      "ordinates": 3112,
      "#!": 3113,
      "second": 3114,
      "adata": 3115,
      "CH": 3116,
      "href": 3117,
      "Ġcv": 3118,
      "dataclass": 3119,
      "extend": 3120,
      "33": 3121,
      "Dist": 3122,
      "fl": 3123,
      "ping": 3124,
      "ties": 3125,
      "inomial": 3126,
      "alys": 3127,
      "alysis": 3128,
      "HT": 3129,
      "atic": 3130,
      "Ġ16": 3131,
      "ople": 3132,
      "comes": 3133,
      "ĠRandom": 3134,
      "Ġproducts": 3135,
      "pointer": 3136,
      "options": 3137,
      "Ġneighbor": 3138,
      "Ġauthor": 3139,
      ".')": 3140,
      "ĠGroup": 3141,
      "Ġadds": 3142,
      "Ġbuilt": 3143,
      "umeric": 3144,
      "inder": 3145,
      "curr": 3146,
      "ĠEn": 3147,
      "Ġensuring": 3148,
      "Ġheader": 3149,
      "EST": 3150,
      "sor": 3151,
      "Ġdjango": 3152,
      "Ġemployees": 3153,
      "prices": 3154,
      "Ġfrequent": 3155,
      "Ġerrors": 3156,
      "event": 3157,
      ")),": 3158,
      "Ġuni": 3159,
      "ĠSequential": 3160,
      "Ġtasks": 3161,
      "HO": 3162,
      "ring": 3163,
      "icles": 3164,
      "Ġ200": 3165,
      "project": 3166,
      "sets": 3167,
      "Ġdivide": 3168,
      "EX": 3169,
      "client": 3170,
      "ired": 3171,
      "make": 3172,
      "ude": 3173,
      "Ġmixed": 3174,
      "Ġreturning": 3175,
      "Ġconnection": 3176,
      "argv": 3177,
      "ROM": 3178,
      "caten": 3179,
      "EY": 3180,
      "bound": 3181,
      "roll": 3182,
      "Ġ{}\".": 3183,
      "Ġupdated": 3184,
      "Ġradius": 3185,
      "creen": 3186,
      "Ġexisting": 3187,
      "Ġscrape": 3188,
      "Ġmonth": 3189,
      "!\"": 3190,
      "'},": 3191,
      "high": 3192,
      "Ġincl": 3193,
      "ĠRemove": 3194,
      "rown": 3195,
      "([[": 3196,
      "Ġsuccess": 3197,
      "Ġenter": 3198,
      "Ġquest": 3199,
      "Ġscores": 3200,
      "Ġspaces": 3201,
      "ift": 3202,
      "omin": 3203,
      "forms": 3204,
      "Reader": 3205,
      "Ġfinding": 3206,
      "Ġbox": 3207,
      "predictions": 3208,
      "ESS": 3209,
      "ĠYou": 3210,
      "80": 3211,
      "button": 3212,
      "gine": 3213,
      "ĠValid": 3214,
      "stop": 3215,
      "atbot": 3216,
      "ential": 3217,
      "metri": 3218,
      "ĠCan": 3219,
      "*(": 3220,
      "Tra": 3221,
      "ropy": 3222,
      "Ġbatches": 3223,
      "Ġ<<": 3224,
      "Ġinitializes": 3225,
      "Ġvectorizer": 3226,
      "Ġrepeated": 3227,
      "Ġabout": 3228,
      "JSON": 3229,
      "spec": 3230,
      "ves": 3231,
      "xi": 3232,
      "secret": 3233,
      "Ġcipher": 3234,
      "Ġinvalid": 3235,
      "ries": 3236,
      "Ġbool": 3237,
      "command": 3238,
      "Ġagain": 3239,
      "Ġcomprehension": 3240,
      "ca": 3241,
      "call": 3242,
      "off": 3243,
      "ways": 3244,
      "ination": 3245,
      "session": 3246,
      "anana": 3247,
      "Ġ[],": 3248,
      "Ġprocessing": 3249,
      "Ġones": 3250,
      "ipel": 3251,
      "access": 3252,
      "Ġsubstrings": 3253,
      "anguages": 3254,
      "Ġconditions": 3255,
      "Ġupdating": 3256,
      "Ġphone": 3257,
      "ĠUnion": 3258,
      "RA": 3259,
      "You": 3260,
      "extra": 3261,
      "fs": 3262,
      "ules": 3263,
      "anumeric": 3264,
      "ower": 3265,
      "Ġvari": 3266,
      "Ġmetrics": 3267,
      "Ġtechn": 3268,
      "\"],": 3269,
      "ds": 3270,
      "Ġcmd": 3271,
      "gex": 3272,
      "olute": 3273,
      "Ġlengths": 3274,
      "Ġlarge": 3275,
      "Ġshortest": 3276,
      "Ġlines": 3277,
      "Ġwould": 3278,
      "auth": 3279,
      "({'": 3280,
      "sequences": 3281,
      "Ġpad": 3282,
      "Ġdevice": 3283,
      "uding": 3284,
      "Ġ1000": 3285,
      "#!/": 3286,
      "CO": 3287,
      "peri": 3288,
      "Ġmatches": 3289,
      "ĠProgram": 3290,
      "utils": 3291,
      "*-": 3292,
      "cast": 3293,
      "Ġregression": 3294,
      "Ġprob": 3295,
      "Ġ26": 3296,
      "Ġconsecutive": 3297,
      "LECT": 3298,
      "Cont": 3299,
      "MA": 3300,
      "UL": 3301,
      "seen": 3302,
      "Ġrel": 3303,
      "Ġworld": 3304,
      "ĠCom": 3305,
      "Ġran": 3306,
      "Ġbegin": 3307,
      "distinct": 3308,
      "template": 3309,
      "span": 3310,
      "Ġsimil": 3311,
      "ipeline": 3312,
      "iloc": 3313,
      "uid": 3314,
      "Ġrect": 3315,
      "Ġbal": 3316,
      "Ġ'{": 3317,
      "Ġrot": 3318,
      "uffle": 3319,
      "Hand": 3320,
      "limit": 3321,
      "here": 3322,
      "atically": 3323,
      "cell": 3324,
      "Ġappe": 3325,
      "Ġservice": 3326,
      "ING": 3327,
      "Ġcells": 3328,
      "cli": 3329,
      "ĠâĢ": 3330,
      "any": 3331,
      "Ġassert": 3332,
      "ATE": 3333,
      "ĠMultinomial": 3334,
      "ba": 3335,
      "days": 3336,
      "true": 3337,
      "req": 3338,
      "hes": 3339,
      "grade": 3340,
      "ĠDFS": 3341,
      "ĠAn": 3342,
      "Ġaddition": 3343,
      "Ġedit": 3344,
      "Ġtriangle": 3345,
      "Not": 3346,
      "ĉĊ": 3347,
      "ists": 3348,
      "change": 3349,
      "ĠIs": 3350,
      "imize": 3351,
      "After": 3352,
      "DB": 3353,
      "cache": 3354,
      "Ġtuples": 3355,
      "Ġ\".": 3356,
      "Ġ\"\\": 3357,
      "Ġdataclasses": 3358,
      "udents": 3359,
      "Ġzip": 3360,
      "azy": 3361,
      "!')": 3362,
      "13": 3363,
      "Size": 3364,
      "cnt": 3365,
      "Ġext": 3366,
      "ĠOR": 3367,
      "msg": 3368,
      "Ġtyping": 3369,
      "Ġweights": 3370,
      "Ġadjac": 3371,
      "Ġattributes": 3372,
      "Ġaxis": 3373,
      "Key": 3374,
      "bu": 3375,
      "sqrt": 3376,
      "Ġmay": 3377,
      "':'": 3378,
      "Ġcursor": 3379,
      "queness": 3380,
      "frequent": 3381,
      "Ġreads": 3382,
      ".'": 3383,
      "Com": 3384,
      "Model": 3385,
      "record": 3386,
      "entropy": 3387,
      "Ġencoded": 3388,
      "Ġshow": 3389,
      "Int": 3390,
      "ĠSearch": 3391,
      "Ġcapital": 3392,
      "Ġsliding": 3393,
      "ĠRaises": 3394,
      "icket": 3395,
      "Ġcle": 3396,
      "Ġ'-": 3397,
      "lists": 3398,
      "Ġresulting": 3399,
      "phone": 3400,
      "reshold": 3401,
      "Ġautomatically": 3402,
      "Ġuniqueness": 3403,
      ")`:": 3404,
      "card": 3405,
      "mark": 3406,
      "src": 3407,
      "tk": 3408,
      "Ġtail": 3409,
      "ister": 3410,
      "Ġexec": 3411,
      "Ġpriority": 3412,
      "Ġvalidate": 3413,
      "ĠException": 3414,
      "ĠExplanation": 3415,
      "ogle": 3416,
      "Dir": 3417,
      "SS": 3418,
      "uted": 3419,
      "quantity": 3420,
      "ĠEdit": 3421,
      "Ġmemory": 3422,
      "ĠMultinomialNB": 3423,
      "24": 3424,
      "Or": 3425,
      "air": 3426,
      "bb": 3427,
      "cross": 3428,
      "pus": 3429,
      "punctuation": 3430,
      "Ġnull": 3431,
      "rol": 3432,
      "Ġmer": 3433,
      "Ġassign": 3434,
      "ĠFROM": 3435,
      "Ġneural": 3436,
      "Ġchars": 3437,
      "ĠNum": 3438,
      "Ġprimes": 3439,
      "Ġcalculated": 3440,
      "....": 3441,
      "moves": 3442,
      "Ġaccept": 3443,
      "SELECT": 3444,
      "duplicate": 3445,
      "Ġrespectively": 3446,
      "merged": 3447,
      "vents": 3448,
      "Ġop": 3449,
      "Ġ-*-": 3450,
      "ĠDo": 3451,
      "bose": 3452,
      "filtered": 3453,
      "Decode": 3454,
      "Ġprovide": 3455,
      "ĠGroups": 3456,
      "No": 3457,
      "cmd": 3458,
      "func": 3459,
      "Ġ\"+": 3460,
      "ivid": 3461,
      "\").": 3462,
      "classifier": 3463,
      "comm": 3464,
      "ĠGeneral": 3465,
      "Map": 3466,
      "Ġ},": 3467,
      "untered": 3468,
      "Ġhow": 3469,
      "Ġprediction": 3470,
      "aster": 3471,
      "files": 3472,
      "Ġincrease": 3473,
      "Ġhandling": 3474,
      "Ġclasses": 3475,
      "integers": 3476,
      "olume": 3477,
      "ĠParse": 3478,
      ")[": 3479,
      "PAT": 3480,
      "has": 3481,
      "vowels": 3482,
      "')]": 3483,
      "\"),": 3484,
      "prev": 3485,
      "Ġpaths": 3486,
      "Ġedge": 3487,
      "Ġbooks": 3488,
      "Ġarticle": 3489,
      "Ġencountered": 3490,
      "ĠLogistic": 3491,
      "sm": 3492,
      "store": 3493,
      "Ġcar": 3494,
      "Ġcard": 3495,
      "dev": 3496,
      "Ġdirect": 3497,
      "Ġkn": 3498,
      "Ġmodul": 3499,
      "Ġfactors": 3500,
      ")/": 3501,
      "DI": 3502,
      "Pre": 3503,
      "Ġfetch": 3504,
      "quation": 3505,
      "usters": 3506,
      "wards": 3507,
      ".*": 3508,
      "Equal": 3509,
      "Pos": 3510,
      "inis": 3511,
      "ube": 3512,
      "epth": 3513,
      "defaultdict": 3514,
      "ividual": 3515,
      "mar": 3516,
      "stock": 3517,
      "ĠPublic": 3518,
      "ĠSum": 3519,
      "opy": 3520,
      "ĠLink": 3521,
      "Ġgenerates": 3522,
      "Ġabove": 3523,
      "pochs": 3524,
      "42": 3525,
      "Ġeas": 3526,
      "Ġdon": 3527,
      "Ġ'--": 3528,
      "ris": 3529,
      "Ġ`(": 3530,
      "ĠINT": 3531,
      "oms": 3532,
      "ĠĠĠĠĠĠĠĠĠĠĠĠĠĠĠĠĠĠ": 3533,
      "Ġprefer": 3534,
      "web": 3535,
      "ffici": 3536,
      "Ġrepresenting": 3537,
      "Product": 3538,
      "ĠQueue": 3539,
      "Ġlookups": 3540,
      "\">": 3541,
      "Al": 3542,
      "Forest": 3543,
      "driver": 3544,
      "hash": 3545,
      "Ġfill": 3546,
      "Ġret": 3547,
      "Ġplot": 3548,
      "Ġlanguages": 3549,
      "ĠSh": 3550,
      "Ġbecomes": 3551,
      "combin": 3552,
      "ours": 3553,
      "Ġoutputs": 3554,
      "Ġuppercase": 3555,
      "delete": 3556,
      "\"):": 3557,
      "If": 3558,
      "aces": 3559,
      "yle": 3560,
      "Ġpunctuation": 3561,
      "ump": 3562,
      "isode": 3563,
      "numeric": 3564,
      "ĠGNU": 3565,
      "mult": 3566,
      "Ġ\"/": 3567,
      "Ġglobal": 3568,
      "Ġstatus": 3569,
      "ĠSo": 3570,
      "types": 3571,
      "Ġcontact": 3572,
      "Ġ40": 3573,
      "anges": 3574,
      "Ġlogging": 3575,
      "Ġcalls": 3576,
      "tings": 3577,
      "LI": 3578,
      "cision": 3579,
      "sql": 3580,
      "var": 3581,
      "Ġclf": 3582,
      "dered": 3583,
      "Ġbubble": 3584,
      "Ġ13": 3585,
      "Ġraw": 3586,
      "ĠAI": 3587,
      "udo": 3588,
      "Ġfollows": 3589,
      "Handler": 3590,
      "Fibonacci": 3591,
      "KEY": 3592,
      "ied": 3593,
      "erator": 3594,
      "adam": 3595,
      "gether": 3596,
      "Ġchatbot": 3597,
      "Ġsentences": 3598,
      "ironment": 3599,
      "19": 3600,
      "Create": 3601,
      "URL": 3602,
      "ster": 3603,
      "Ġfixed": 3604,
      "]),": 3605,
      "ĠĠĠĠĠĠĠĠĠĠĠĠĠĠĠĠĊ": 3606,
      "priate": 3607,
      "Ġrepresentation": 3608,
      "Ġcombination": 3609,
      "Ġtechnique": 3610,
      "78": 3611,
      "User": 3612,
      "fetch": 3613,
      "gree": 3614,
      "step": 3615,
      "let": 3616,
      "Ġevaluate": 3617,
      "Ġ'',": 3618,
      "Ġproject": 3619,
      "Ġdetails": 3620,
      "Ġrequire": 3621,
      "Ġemails": 3622,
      "Ġabsolute": 3623,
      "Ġchoices": 3624,
      "DecodeError": 3625,
      "rating": 3626,
      "sg": 3627,
      "Ġspeed": 3628,
      "users": 3629,
      "results": 3630,
      "job": 3631,
      "zeros": 3632,
      "Ġgenerator": 3633,
      "Ġencrypted": 3634,
      "batch": 3635,
      "glish": 3636,
      "}'": 3637,
      "Ġqueries": 3638,
      "Ġign": 3639,
      "Ġwant": 3640,
      "ifies": 3641,
      "Ġitself": 3642,
      "ĠSentiment": 3643,
      "Ġnamed": 3644,
      "Ġmultiplication": 3645,
      "Ġremoved": 3646,
      "Ġsupport": 3647,
      "Ġbalance": 3648,
      "HER": 3649,
      "cm": 3650,
      "ream": 3651,
      "Ġframe": 3652,
      "Ġreference": 3653,
      "Ġsave": 3654,
      "abs": 3655,
      "Ġsubsequence": 3656,
      "itions": 3657,
      "Ġcollect": 3658,
      "Ġappropriate": 3659,
      "ĠValidate": 3660,
      "({": 3661,
      "Ġ):": 3662,
      "Ġrece": 3663,
      "Ġextra": 3664,
      "icy": 3665,
      "ĠSQL": 3666,
      "Ġreport": 3667,
      "clude": 3668,
      "Ġdirection": 3669,
      "JSONDecodeError": 3670,
      "By": 3671,
      "Please": 3672,
      "Th": 3673,
      "non": 3674,
      "Ġsw": 3675,
      "ublis": 3676,
      "Ġcreated": 3677,
      "enerator": 3678,
      "Ġcontinues": 3679,
      "Ġtkinter": 3680,
      "Ġretrieve": 3681,
      "ĠRandomForest": 3682,
      "(['": 3683,
      "Ġfar": 3684,
      "Ġsend": 3685,
      "Ġbrown": 3686,
      "indices": 3687,
      "Ġclassification": 3688,
      "reader": 3689,
      "Ġheaders": 3690,
      "Ġurllib": 3691,
      "Ġperformance": 3692,
      "Search": 3693,
      "Ġregular": 3694,
      "olumn": 3695,
      "extraction": 3696,
      "mask": 3697,
      "zip": 3698,
      "atural": 3699,
      "ane": 3700,
      "isible": 3701,
      "Ġchr": 3702,
      "ĠFil": 3703,
      "ĠĠĠĠĠĠĠĠĠĠĠĠĠĠĠĠĠĠĠĠĠĠĠĠĠĠĠĠĠĠĠ": 3704,
      "Ġlocal": 3705,
      "ĠUser": 3706,
      "([\"": 3707,
      "ensity": 3708,
      "Ġgrade": 3709,
      "Ġprocessed": 3710,
      "ĠLogisticRegression": 3711,
      "'][": 3712,
      "Cal": 3713,
      "]*": 3714,
      "bed": 3715,
      "olean": 3716,
      "ral": 3717,
      "tle": 3718,
      "xy": 3719,
      "Ġenti": 3720,
      "Ġlat": 3721,
      "Ġlazy": 3722,
      "ĠAt": 3723,
      "arry": 3724,
      "bytes": 3725,
      "products": 3726,
      "Ġmemoization": 3727,
      "Ġentry": 3728,
      "Ġclear": 3729,
      "Ġmodulo": 3730,
      "Ġentire": 3731,
      "drop": 3732,
      "ian": 3733,
      "Ġslice": 3734,
      "Ġsales": 3735,
      "Ġtogether": 3736,
      "Request": 3737,
      "ĠReverse": 3738,
      "ager": 3739,
      "Ġsearching": 3740,
      "posit": 3741,
      "Ġrunning": 3742,
      "center": 3743,
      "Ġfields": 3744,
      "factorial": 3745,
      "Ġlocation": 3746,
      "Ġpreserving": 3747,
      "Ġbeginning": 3748,
      "wd": 3749,
      "Ġfour": 3750,
      "edList": 3751,
      "Ġconcaten": 3752,
      "ĠAS": 3753,
      "conf": 3754,
      "Ġloss": 3755,
      "ĠMy": 3756,
      "Comp": 3757,
      "evens": 3758,
      "Ġcomputer": 3759,
      "Ġguess": 3760,
      "40": 3761,
      "Check": 3762,
      "domain": 3763,
      "Ġcoding": 3764,
      "loop": 3765,
      "Ġ[-": 3766,
      "iled": 3767,
      "nodes": 3768,
      "Ġparameter": 3769,
      "month": 3770,
      "positive": 3771,
      "Ġtweet": 3772,
      "Analyzer": 3773,
      "Ġcenter": 3774,
      "+=": 3775,
      ",\"": 3776,
      "\\.": 3777,
      "Ġinfo": 3778,
      "Ġrating": 3779,
      "Ġperm": 3780,
      "Ġperforms": 3781,
      "ĠRes": 3782,
      "alindrom": 3783,
      "objects": 3784,
      "Ġworks": 3785,
      "Ġincluding": 3786,
      "RI": 3787,
      "stall": 3788,
      "desc": 3789,
      "Ġepochs": 3790,
      "ĠĠĠĠĠĠĠĠĠĠĊ": 3791,
      "Ġparams": 3792,
      "contain": 3793,
      "reshape": 3794,
      ":%": 3795,
      "AP": 3796,
      "Item": 3797,
      "Lo": 3798,
      "win": 3799,
      "Ġmalformed": 3800,
      "Ġ\"-": 3801,
      "loss": 3802,
      "coding": 3803,
      "Ġcontext": 3804,
      "Ġbeing": 3805,
      "pose": 3806,
      "Ġ60": 3807,
      "display": 3808,
      "Ġfox": 3809,
      "assertEqual": 3810,
      "crossentropy": 3811,
      "AD": 3812,
      "Message": 3813,
      "ier": 3814,
      "nce": 3815,
      "sig": 3816,
      "Ġcriter": 3817,
      "Ġbutton": 3818,
      "aps": 3819,
      "ics": 3820,
      "ĠDense": 3821,
      "Ġmeet": 3822,
      "helper": 3823,
      "module": 3824,
      "]`.": 3825,
      "ire": 3826,
      "Ġnow": 3827,
      "Ġwrit": 3828,
      "stru": 3829,
      "ĠInitial": 3830,
      "exit": 3831,
      "\":\"": 3832,
      "lta": 3833,
      "Ġcomputed": 3834,
      "Ġdecimal": 3835,
      "Ġconstant": 3836,
      "OP": 3837,
      "su": 3838,
      "Ġ...": 3839,
      "aper": 3840,
      "']))": 3841,
      "sumer": 3842,
      "subset": 3843,
      "Ġvalidation": 3844,
      "Ġconverts": 3845,
      "ĠStart": 3846,
      "Ġaccount": 3847,
      "âĢĻ": 3848,
      "nal": 3849,
      "rs": 3850,
      "rink": 3851,
      "encrypt": 3852,
      "Ġcircle": 3853,
      "Ġdim": 3854,
      "()))": 3855,
      "ĠFit": 3856,
      "('\\": 3857,
      "prediction": 3858,
      "cols": 3859,
      "Ġfrequencies": 3860,
      "Ġincreasing": 3861,
      "Ġobj": 3862,
      "property": 3863,
      ")**": 3864,
      "SQL": 3865,
      "trees": 3866,
      "Ð¾": 3867,
      "ery": 3868,
      "Ġreached": 3869,
      "ĠPer": 3870,
      "Ġview": 3871,
      "ĠOpen": 3872,
      "permut": 3873,
      "ĠLe": 3874,
      "weather": 3875,
      "Ġmodified": 3876,
      "ensions": 3877,
      "1000": 3878,
      "90": 3879,
      "bers": 3880,
      "dog": 3881,
      "pu": 3882,
      "Ġtmp": 3883,
      "onal": 3884,
      "Ġct": 3885,
      "less": 3886,
      "Ġcoe": 3887,
      "Ġprofit": 3888,
      "Ġanalysis": 3889,
      "Ġstd": 3890,
      "Ġdefines": 3891,
      "ĠSto": 3892,
      "owel": 3893,
      "Ġcomplete": 3894,
      "calculate": 3895,
      "login": 3896,
      "ched": 3897,
      "Ġprobability": 3898,
      "'\\": 3899,
      ">\"": 3900,
      "Ġold": 3901,
      "cels": 3902,
      "Ġcourse": 3903,
      "Ġhist": 3904,
      "track": 3905,
      "primes": 3906,
      "essages": 3907,
      "Ġcalculating": 3908,
      "Ġsquares": 3909,
      "DictReader": 3910,
      "Ġpermutation": 3911,
      "Intensity": 3912,
      "21": 3913,
      "ech": 3914,
      "lim": 3915,
      "mixed": 3916,
      "Ġì": 3917,
      "Ġfib": 3918,
      "rase": 3919,
      "tex": 3920,
      "(\"\\": 3921,
      "('-": 3922,
      "Ġimplements": 3923,
      "zero": 3924,
      "ominator": 3925,
      "celsius": 3926,
      "Base": 3927,
      "FF": 3928,
      "Label": 3929,
      "`).": 3930,
      "vol": 3931,
      "Ġip": 3932,
      "Ġdue": 3933,
      "Ġcoordinates": 3934,
      "Ġ28": 3935,
      "ĠSub": 3936,
      "versing": 3937,
      "Ġstructures": 3938,
      "Ġkeeps": 3939,
      "Ġhashmap": 3940,
      "Ġflatten": 3941,
      "metrics": 3942,
      "ĠIsland": 3943,
      "PATH": 3944,
      "ĠSentimentIntensity": 3945,
      "It": 3946,
      "bit": 3947,
      "bine": 3948,
      "gy": 3949,
      "language": 3950,
      "wers": 3951,
      "Ġ>>": 3952,
      "ĠSentimentIntensityAnalyzer": 3953,
      "CS": 3954,
      "Col": 3955,
      "Qu": 3956,
      "mage": 3957,
      "alog": 3958,
      "Ġ14": 3959,
      "ĠCall": 3960,
      "idden": 3961,
      "peek": 3962,
      "']:": 3963,
      "ĠMOD": 3964,
      "ĠKey": 3965,
      "Ġintersection": 3966,
      "Ġdivisor": 3967,
      "ĠCompute": 3968,
      "fully": 3969,
      "API": 3970,
      "Bo": 3971,
      "Function": 3972,
      "Optim": 3973,
      "aded": 3974,
      "roman": 3975,
      "appy": 3976,
      "Ġexecute": 3977,
      "Ġapi": 3978,
      "Integ": 3979,
      "Def": 3980,
      "'})": 3981,
      "elem": 3982,
      "imple": 3983,
      "pr": 3984,
      "sim": 3985,
      "Ðµ": 3986,
      "heapp": 3987,
      "Ġcache": 3988,
      "leep": 3989,
      "dient": 3990,
      "Ġ::": 3991,
      "Ġgenerated": 3992,
      "Ġtesting": 3993,
      "Ġverbose": 3994,
      "Ġterms": 3995,
      "Ġcategories": 3996,
      "weights": 3997,
      "optimizer": 3998,
      "(*": 3999,
      "IF": 4000,
      "cv": 4001,
      "space": 4002,
      "Ġfinis": 4003,
      "itude": 4004,
      "ropo": 4005,
      "chain": 4006,
      "dire": 4007,
      "ĠFile": 4008,
      "lowercase": 4009,
      "Ġdesired": 4010,
      "Ġmanage": 4011,
      "Ġtweets": 4012,
      "books": 4013,
      "Ġcustomers": 4014,
      "Prime": 4015,
      "Ġcandid": 4016,
      "={": 4017,
      "banana": 4018,
      "sk": 4019,
      "Ġ$": 4020,
      "Ġmut": 4021,
      "Ġstoring": 4022,
      "amily": 4023,
      "older": 4024,
      "derr": 4025,
      "ropout": 4026,
      "UN": 4027,
      "US": 4028,
      "ailed": 4029,
      "false": 4030,
      "gle": 4031,
      "push": 4032,
      "Ġturn": 4033,
      "Ġrest": 4034,
      "Ġ\"%": 4035,
      "Ġ\"<": 4036,
      "Ġjumps": 4037,
      "Ġkeyword": 4038,
      "Ġimg": 4039,
      "Ġpeople": 4040,
      "alphanumeric": 4041,
      "Ġcriteria": 4042,
      "/'": 4043,
      "Column": 4044,
      "Get": 4045,
      "custom": 4046,
      "dot": 4047,
      "fahrenheit": 4048,
      "lin": 4049,
      "occur": 4050,
      "Ġ^": 4051,
      "att": 4052,
      "Ġpur": 4053,
      "ivity": 4054,
      "ĠIN": 4055,
      "imag": 4056,
      "']['": 4057,
      "ribute": 4058,
      "Ġcluster": 4059,
      "Ġdecrement": 4060,
      "Ġenvironment": 4061,
      "HE": 4062,
      "clo": 4063,
      "tmp": 4064,
      "tain": 4065,
      "Ġstandard": 4066,
      "Ġalways": 4067,
      "Ġdiag": 4068,
      "Ġ*=": 4069,
      "database": 4070,
      "ĠDjango": 4071,
      "ĠĠĠĠĠĠĠĠĠĠĠĠĠĠĠĠĠ": 4072,
      "ĠĠĠĠĠĠĠĠĠĠĠĠĠĠĠĠĠĠĠĠĠĠĠĠ": 4073,
      "Info": 4074,
      "tasks": 4075,
      "pass": 4076,
      "vices": 4077,
      "atis": 4078,
      "ĠPerson": 4079,
      "ĠXOR": 4080,
      "Ġaccum": 4081,
      "Ġoption": 4082,
      "Ġmoving": 4083,
      "Ġindicating": 4084,
      "?)": 4085,
      "CK": 4086,
      "mer": 4087,
      "mble": 4088,
      "stra": 4089,
      "aler": 4090,
      "Ġreal": 4091,
      "Ġsection": 4092,
      "article": 4093,
      "urls": 4094,
      "Ġseconds": 4095,
      "Ġinitialized": 4096,
      "DataFrame": 4097,
      "><": 4098,
      "Top": 4099,
      "person": 4100,
      "sup": 4101,
      "rices": 4102,
      "Ġ((": 4103,
      "Ġminutes": 4104,
      "Ġshrink": 4105,
      "light": 4106,
      "Ġinitializing": 4107,
      "Ġtags": 4108,
      "Ġneighbors": 4109,
      "integer": 4110,
      "Ġconstra": 4111,
      "Ġmerges": 4112,
      "atisf": 4113,
      "Scal": 4114,
      "]],": 4115,
      "student": 4116,
      "Ġcert": 4117,
      "Ġpick": 4118,
      "Ġelem": 4119,
      "ĠmaxLength": 4120,
      "Ġround": 4121,
      "Ġcannot": 4122,
      "aving": 4123,
      "contents": 4124,
      "Ġhandles": 4125,
      "posts": 4126,
      "latten": 4127,
      "Ġproperties": 4128,
      "Ġsimpl": 4129,
      "ĠPointer": 4130,
      "\"{": 4131,
      "60": 4132,
      "={}": 4133,
      "menu": 4134,
      "hent": 4135,
      "atio": 4136,
      "Ġways": 4137,
      "Ġ17": 4138,
      "Ġ18": 4139,
      "ison": 4140,
      "Ġasso": 4141,
      "movie": 4142,
      "Ġjoin": 4143,
      "ĠNe": 4144,
      "ĠEach": 4145,
      "ĠMod": 4146,
      "Ġends": 4147,
      "vectorizer": 4148,
      "Ġtitles": 4149,
      "spam": 4150,
      "Ġquad": 4151,
      "Ġspam": 4152,
      "Ġsuper": 4153,
      "Ġreduce": 4154,
      "Ġassoci": 4155,
      ")])": 4156,
      "=\"\"": 4157,
      "Age": 4158,
      "ball": 4159,
      "ole": 4160,
      "Ġfunc": 4161,
      "unit": 4162,
      "Ġ'%": 4163,
      "annel": 4164,
      "Ġ\"\".": 4165,
      "reatest": 4166,
      "Ġbelow": 4167,
      "prob": 4168,
      "Ġsocket": 4169,
      "ants": 4170,
      "header": 4171,
      "Ġdatasets": 4172,
      "ORT": 4173,
      "mainder": 4174,
      "duce": 4175,
      "Ġpygame": 4176,
      "rapper": 4177,
      "Ġcategory": 4178,
      "Ġdirectly": 4179,
      "hentic": 4180,
      "/%": 4181,
      "Min": 4182,
      "gender": 4183,
      "pq": 4184,
      "script": 4185,
      "vm": 4186,
      "Ð¸": 4187,
      "Ġlon": 4188,
      "utral": 4189,
      "Ġ19": 4190,
      "ĠCelsius": 4191,
      "ilities": 4192,
      "irt": 4193,
      "ips": 4194,
      "Ġencode": 4195,
      "Ġdocuments": 4196,
      "ALU": 4197,
      "Ġaccordingly": 4198,
      "456": 4199,
      "Ġrank": 4200,
      "MP": 4201,
      "bayes": 4202,
      "ha": 4203,
      "Ġoff": 4204,
      "ĠText": 4205,
      "Ġalph": 4206,
      "ĠNOT": 4207,
      "vide": 4208,
      "ĠEvaluate": 4209,
      "****": 4210,
      "preprocessing": 4211,
      "Ġoptimized": 4212,
      "Ġparts": 4213,
      "Ġpartition": 4214,
      "issors": 4215,
      "200": 4216,
      "Button": 4217,
      "bt": 4218,
      "far": 4219,
      "}}": 4220,
      "err": 4221,
      "chie": 4222,
      "ĠClass": 4223,
      "mote": 4224,
      "------": 4225,
      "Ġexpected": 4226,
      "Ġcols": 4227,
      "Incorrect": 4228,
      "soft": 4229,
      "Ġamounts": 4230,
      "option": 4231,
      "expression": 4232,
      "categorical": 4233,
      "tweet": 4234,
      "18": 4235,
      "clean": 4236,
      "dumps": 4237,
      "hist": 4238,
      "tion": 4239,
      "Ġcraw": 4240,
      "Ġequation": 4241,
      "Ġdraw": 4242,
      "ĠFahrenheit": 4243,
      "Ġexit": 4244,
      "Ġcollap": 4245,
      "Ġcontents": 4246,
      "Ġparsed": 4247,
      "headers": 4248,
      "Ġrespective": 4249,
      "XX": 4250,
      "mn": 4251,
      "solution": 4252,
      "Ġachie": 4253,
      "ctx": 4254,
      "Ġsatisf": 4255,
      "mployee": 4256,
      "Ġoptimizer": 4257,
      "Ġposts": 4258,
      "Ġarticles": 4259,
      "xxxx": 4260,
      "Parser": 4261,
      "ĠString": 4262,
      "ĠPerform": 4263,
      "customers": 4264,
      "'{": 4265,
      "::": 4266,
      "Ad": 4267,
      "At": 4268,
      "Object": 4269,
      "ĠCopy": 4270,
      "Ġjust": 4271,
      "ressor": 4272,
      "Ġsymb": 4273,
      "Start": 4274,
      "Ġquicksort": 4275,
      "Ġterm": 4276,
      "uzzle": 4277,
      "sentences": 4278,
      "Ġassociated": 4279,
      "Sh": 4280,
      "cb": 4281,
      "normal": 4282,
      "save": 4283,
      "Ð°": 4284,
      "Ġalong": 4285,
      "Ġ24": 4286,
      "ĠSV": 4287,
      "ĠAl": 4288,
      "Ġsubject": 4289,
      "Ġsubprocess": 4290,
      "ĠCalcul": 4291,
      "ĠSee": 4292,
      "Ġmany": 4293,
      "mbed": 4294,
      "uppercase": 4295,
      "Ġrepeat": 4296,
      "polarity": 4297,
      "localhost": 4298,
      "App": 4299,
      "IP": 4300,
      "Window": 4301,
      "car": 4302,
      "fidf": 4303,
      "pip": 4304,
      "power": 4305,
      "release": 4306,
      "hex": 4307,
      "encoded": 4308,
      "Ġmsg": 4309,
      "Ġevents": 4310,
      "ĠCont": 4311,
      "Ġendpoint": 4312,
      "Ġrate": 4313,
      "starts": 4314,
      "Ġobtain": 4315,
      "Ġdestination": 4316,
      "Ġseparate": 4317,
      "ĠAND": 4318,
      "Distance": 4319,
      "Order": 4320,
      "!'": 4321,
      "/{": 4322,
      "Output": 4323,
      "ae": 4324,
      "dl": 4325,
      "draw": 4326,
      "gues": 4327,
      "ui": 4328,
      "Ġmask": 4329,
      "Ġgender": 4330,
      "Ġthird": 4331,
      "ptr": 4332,
      "contact": 4333,
      "Price": 4334,
      "median": 4335,
      "Ġadjacent": 4336,
      "multi": 4337,
      "ĠRandomForestClassifier": 4338,
      "CA": 4339,
      "Java": 4340,
      "ng": 4341,
      "naive": 4342,
      "strong": 4343,
      "ĠTfidf": 4344,
      "olve": 4345,
      "creasing": 4346,
      "Inter": 4347,
      "Ġdog": 4348,
      "Ġdoub": 4349,
      "Ġdistances": 4350,
      "Ġequals": 4351,
      "ensional": 4352,
      "ĠVector": 4353,
      "edia": 4354,
      "links": 4355,
      "Ġattribute": 4356,
      "handle": 4357,
      "neighbor": 4358,
      "Integer": 4359,
      "End": 4360,
      "epy": 4361,
      "math": 4362,
      "nn": 4363,
      "report": 4364,
      "Ġfull": 4365,
      "this": 4366,
      "Ġdriver": 4367,
      "Ġduring": 4368,
      "utions": 4369,
      "Ġbits": 4370,
      "Ġ'*": 4371,
      "ket": 4372,
      "Ġwhose": 4373,
      "ĠReasoning": 4374,
      "Ġcompon": 4375,
      "Ġtaking": 4376,
      "ĠRun": 4377,
      "aves": 4378,
      "findall": 4379,
      "ongo": 4380,
      "Ġinterval": 4381,
      "Ġzeros": 4382,
      "LOG": 4383,
      "Ġimpro": 4384,
      "17": 4385,
      "Home": 4386,
      "your": 4387,
      "real": 4388,
      "Ġpi": 4389,
      "ummy": 4390,
      "Ġwell": 4391,
      "Ġbody": 4392,
      "ceed": 4393,
      "isual": 4394,
      "icode": 4395,
      "axis": 4396,
      "Ġxml": 4397,
      "ĠModel": 4398,
      "ĠTrans": 4399,
      "FI": 4400,
      "II": 4401,
      "UP": 4402,
      "visit": 4403,
      "decode": 4404,
      "Ġinner": 4405,
      "Ġdomain": 4406,
      "Ġsession": 4407,
      "cho": 4408,
      "dio": 4409,
      "ĠĠĠĠĠĠĠĠĠĠĠĠĠĠĠĠĠĠĠĠĠ": 4410,
      "Ġexact": 4411,
      "Ġsubset": 4412,
      "Ġcomments": 4413,
      "difference": 4414,
      "ACE": 4415,
      "Ġconnected": 4416,
      "Ġpackage": 4417,
      "tweets": 4418,
      "Ġquestion": 4419,
      "DO": 4420,
      "best": 4421,
      "null": 4422,
      "Ġcross": 4423,
      "Ġcarry": 4424,
      "Ġlay": 4425,
      "Ġnumer": 4426,
      "edge": 4427,
      "ived": 4428,
      "()).": 4429,
      "ident": 4430,
      "moid": 4431,
      "Ġcolors": 4432,
      "arest": 4433,
      "Ġlogic": 4434,
      "Ġavg": 4435,
      "Ġremoves": 4436,
      "Ġstatement": 4437,
      "TreeClassifier": 4438,
      "ĠDoe": 4439,
      ":])": 4440,
      "Code": 4441,
      "DF": 4442,
      "Found": 4443,
      "aa": 4444,
      "cise": 4445,
      "js": 4446,
      "rary": 4447,
      "xlabel": 4448,
      "invert": 4449,
      "arm": 4450,
      "Ġreset": 4451,
      "Ġpie": 4452,
      "Ġpalindrom": 4453,
      "Ġ\"_": 4454,
      "otes": 4455,
      "Ġ21": 4456,
      "service": 4457,
      "])):": 4458,
      "Ġdebug": 4459,
      "Ġapply": 4460,
      "adding": 4461,
      "Ġsoftware": 4462,
      "Ġ80": 4463,
      "Ġloops": 4464,
      "ysql": 4465,
      "INT": 4466,
      "Ġinsertion": 4467,
      "256": 4468,
      "Ġtweepy": 4469,
      "metadata": 4470,
      "HERE": 4471,
      "22": 4472,
      "First": 4473,
      "World": 4474,
      "bat": 4475,
      "oid": 4476,
      "speed": 4477,
      "ylabel": 4478,
      "Ġcy": 4479,
      "Ġet": 4480,
      "uter": 4481,
      "Ġselection": 4482,
      "iles": 4483,
      "ftime": 4484,
      "oper": 4485,
      "ferences": 4486,
      "ources": 4487,
      "Ġ//=": 4488,
      "answer": 4489,
      "Ġdepend": 4490,
      "----------------------------------------------------------------": 4491,
      "ruit": 4492,
      "SERT": 4493,
      "irtual": 4494,
      "DAT": 4495,
      "Mod": 4496,
      "UI": 4497,
      "]['": 4498,
      "cip": 4499,
      "wik": 4500,
      "select": 4501,
      "Ġfont": 4502,
      "als": 4503,
      "Ġremainder": 4504,
      "Ġsee": 4505,
      "rie": 4506,
      "cograph": 4507,
      "plays": 4508,
      "ccuracy": 4509,
      "counter": 4510,
      "viation": 4511,
      "Ġindividual": 4512,
      "greg": 4513,
      "Ġconsider": 4514,
      "Ġdecision": 4515,
      "Ġlonger": 4516,
      "ĠANY": 4517,
      "+'": 4518,
      "Ind": 4519,
      "mi": 4520,
      "ogram": 4521,
      "use": 4522,
      "world": 4523,
      "orage": 4524,
      "Ġregex": 4525,
      "union": 4526,
      "resses": 4527,
      "Ġtimestamp": 4528,
      "ators": 4529,
      "ĠREST": 4530,
      "fitness": 4531,
      "Ġ90": 4532,
      "Ġoptimization": 4533,
      "ITY": 4534,
      "Ġdoesn": 4535,
      "Ġconsist": 4536,
      "ABLE": 4537,
      "Ġgene": 4538,
      "stdout": 4539,
      "required": 4540,
      "Ġdistributed": 4541,
      "EXT": 4542,
      "fetchall": 4543,
      "Ġcertain": 4544,
      "generator": 4545,
      "way": 4546,
      "iness": 4547,
      "itch": 4548,
      "ramid": 4549,
      "Ġsure": 4550,
      "endar": 4551,
      "serial": 4552,
      "ĠBo": 4553,
      "ĠMain": 4554,
      "Ġshift": 4555,
      "paths": 4556,
      "quival": 4557,
      "ĠDecision": 4558,
      "compound": 4559,
      "Ġmatching": 4560,
      "Ġgood": 4561,
      "Ġ255": 4562,
      "Left": 4563,
      "category": 4564,
      "Pool": 4565,
      "combinations": 4566,
      "Row": 4567,
      "RNA": 4568,
      "UM": 4569,
      "tan": 4570,
      "ernel": 4571,
      "style": 4572,
      "alth": 4573,
      "Ġlater": 4574,
      "Ġdy": 4575,
      "means": 4576,
      "Ġ'\\": 4577,
      "asure": 4578,
      "Ġrespon": 4579,
      "ffect": 4580,
      "inputs": 4581,
      "Ġ{}'.": 4582,
      "cluster": 4583,
      "avg": 4584,
      "tags": 4585,
      "ync": 4586,
      "reversed": 4587,
      "Ġdownload": 4588,
      "samples": 4589,
      "Scaler": 4590,
      "mbedding": 4591,
      "IST": 4592,
      "Sc": 4593,
      "What": 4594,
      "fin": 4595,
      "pk": 4596,
      "tuple": 4597,
      "thing": 4598,
      "ĠWAR": 4599,
      "convert": 4600,
      "Ġboolean": 4601,
      "crement": 4602,
      "Ġtaken": 4603,
      "quality": 4604,
      "short": 4605,
      "ntax": 4606,
      "INSERT": 4607,
      "uggest": 4608,
      "Ġmultipl": 4609,
      "ĠHTTP": 4610,
      "Ġencoding": 4611,
      "ĠSummary": 4612,
      "GER": 4613,
      "Palindrome": 4614,
      "SI": 4615,
      "gment": 4616,
      "jk": 4617,
      "alphabet": 4618,
      "rot": 4619,
      "uture": 4620,
      "plain": 4621,
      "Ġchanges": 4622,
      "Ġunit": 4623,
      "Ġlowest": 4624,
      "Ġserial": 4625,
      "Ġgoal": 4626,
      "capital": 4627,
      "attrs": 4628,
      "ĠIDs": 4629,
      "Server": 4630,
      "Ġappears": 4631,
      "ĠINTO": 4632,
      "ĠStore": 4633,
      "ALUES": 4634,
      "75": 4635,
      "Date": 4636,
      "My": 4637,
      "dtype": 4638,
      "half": 4639,
      "vate": 4640,
      "ÑĤ": 4641,
      "Ġfree": 4642,
      "Ġpas": 4643,
      "Ġnatural": 4644,
      "Ġ'<": 4645,
      "issing": 4646,
      "gramming": 4647,
      "Ġhouse": 4648,
      "ĠSc": 4649,
      "ĠWh": 4650,
      "context": 4651,
      "Ġrandomly": 4652,
      "socket": 4653,
      "'}),": 4654,
      "emails": 4655,
      "CharField": 4656,
      "startswith": 4657,
      "All": 4658,
      "Be": 4659,
      "Docstring": 4660,
      "[(": 4661,
      "[^": 4662,
      "uth": 4663,
      "uous": 4664,
      "cogn": 4665,
      "Ġrand": 4666,
      "Ġangle": 4667,
      "vec": 4668,
      "imeter": 4669,
      "ĠMe": 4670,
      "sole": 4671,
      "Ġvalidates": 4672,
      "contrib": 4673,
      "Ġdisplays": 4674,
      "Numbers": 4675,
      "Ġcapacity": 4676,
      "alyze": 4677,
      "Ġadjust": 4678,
      "xicograph": 4679,
      "apsack": 4680,
      "(_": 4681,
      "Go": 4682,
      "New": 4683,
      "Oper": 4684,
      "cher": 4685,
      "ele": 4686,
      "fg": 4687,
      "public": 4688,
      "Ġcelsius": 4689,
      "alnum": 4690,
      "urtle": 4691,
      "strftime": 4692,
      "Ġthose": 4693,
      "peech": 4694,
      "Ġminimize": 4695,
      "ĠEns": 4696,
      "ĠStruct": 4697,
      "system": 4698,
      "steps": 4699,
      "?,": 4700,
      "Des": 4701,
      "IO": 4702,
      "Per": 4703,
      "\\\"": 4704,
      "Â°": 4705,
      "Ġtrees": 4706,
      "Ġsrc": 4707,
      "Ġwait": 4708,
      "ano": 4709,
      "Ġgreatest": 4710,
      "isalnum": 4711,
      "Ġstats": 4712,
      "Reg": 4713,
      "Ġroll": 4714,
      "ĠBinary": 4715,
      "Values": 4716,
      "Ġpartic": 4717,
      "ĠVALUES": 4718,
      "capacity": 4719,
      "Ġsimply": 4720,
      "pository": 4721,
      ".',": 4722,
      "Alice": 4723,
      "EL": 4724,
      "Total": 4725,
      "Two": 4726,
      "VER": 4727,
      "_='": 4728,
      "home": 4729,
      "Ġam": 4730,
      "rant": 4731,
      "Ġ\"--": 4732,
      "isdigit": 4733,
      "irc": 4734,
      "(\"%": 4735,
      "Ġmodules": 4736,
      "based": 4737,
      "Ġintervals": 4738,
      "128": 4739,
      "corpus": 4740,
      "Explanation": 4741,
      "ĠQu": 4742,
      "ĠPredict": 4743,
      "alpha": 4744,
      "Ġdefined": 4745,
      "Ro": 4746,
      "eat": 4747,
      "screen": 4748,
      "volume": 4749,
      "wait": 4750,
      "ĠZ": 4751,
      "Ġinte": 4752,
      "Ġreview": 4753,
      "Ġput": 4754,
      "idget": 4755,
      "Ġanimal": 4756,
      "elcome": 4757,
      "Ġhours": 4758,
      "Ġdataframe": 4759,
      "Ġlexicograph": 4760,
      "Ġvide": 4761,
      "orecast": 4762,
      "ĠOF": 4763,
      "isect": 4764,
      "Ġunsorted": 4765,
      "ĠVisit": 4766,
      "ART": 4767,
      "State": 4768,
      "ipped": 4769,
      "Ġbuy": 4770,
      "ĠModify": 4771,
      ",-": 4772,
      "/<": 4773,
      "Right": 4774,
      "ade": 4775,
      "fect": 4776,
      "ict": 4777,
      "ration": 4778,
      "ta": 4779,
      "Ġide": 4780,
      "Ġpipeline": 4781,
      "Ġbar": 4782,
      "Ġleaf": 4783,
      "profit": 4784,
      "ags": 4785,
      "ĠUsed": 4786,
      "ĉĉĉĉĉ": 4787,
      "Ġending": 4788,
      "mines": 4789,
      "ĠJoin": 4790,
      "ĠHand": 4791,
      "chemy": 4792,
      "Ġlogin": 4793,
      "ĠStudent": 4794,
      "ĠStandard": 4795,
      "ĠToken": 4796,
      "Ġdivision": 4797,
      "âĢĿ": 4798,
      "ĠCompare": 4799,
      "Ġmaintains": 4800,
      "neighbors": 4801,
      "Ġadditional": 4802,
      "ĠFilter": 4803,
      "HomeDir": 4804,
      ">',": 4805,
      "cand": 4806,
      "fn": 4807,
      "nat": 4808,
      "ux": 4809,
      "rea": 4810,
      "degree": 4811,
      "Ġpublis": 4812,
      "Ġbin": 4813,
      "Ġblog": 4814,
      "()[": 4815,
      "=='": 4816,
      "connection": 4817,
      "Ġcomputes": 4818,
      "ĠHe": 4819,
      "idered": 4820,
      "ĠSorting": 4821,
      "grees": 4822,
      "Ġconsidered": 4823,
      "Returns": 4824,
      "NAME": 4825,
      "Ġrectangle": 4826,
      "Ġcandidate": 4827,
      "quivalent": 4828,
      ">'": 4829,
      "Post": 4830,
      "smallest": 4831,
      "ystem": 4832,
      "stderr": 4833,
      "alk": 4834,
      "Ġref": 4835,
      "Ġpix": 4836,
      "Ġshe": 4837,
      "chase": 4838,
      "comple": 4839,
      "ĠFound": 4840,
      "Ġweather": 4841,
      "consumer": 4842,
      "Ġnews": 4843,
      "exists": 4844,
      "phi": 4845,
      "osen": 4846,
      "temperature": 4847,
      "Ġstopwords": 4848,
      "softmax": 4849,
      "ĠCopyright": 4850,
      "Accuracy": 4851,
      "Score": 4852,
      "bas": 4853,
      "ered": 4854,
      "Ġrelease": 4855,
      "ĠPri": 4856,
      "Ġ[['": 4857,
      "ĠĠĠĠĠĠĠĠĠĠĠĠĠĠĠĠĠĠĠĠ": 4858,
      "usive": 4859,
      "ĉĉĊ": 4860,
      "Ġsmt": 4861,
      "ĠFinds": 4862,
      "Ġsubarrays": 4863,
      "ĠParameters": 4864,
      "mediate": 4865,
      "ĠTfidfVectorizer": 4866,
      "/\"": 4867,
      ">\\": 4868,
      "Next": 4869,
      "png": 4870,
      "eratures": 4871,
      "urs": 4872,
      "three": 4873,
      "Ġevalu": 4874,
      "Ġcoins": 4875,
      "Ġ`-": 4876,
      "ĠIS": 4877,
      "ĠWHERE": 4878,
      "Ġroute": 4879,
      "Ġengine": 4880,
      "Ġshop": 4881,
      "Ġdifferences": 4882,
      "character": 4883,
      "signal": 4884,
      "ĠCho": 4885,
      "RANT": 4886,
      "btn": 4887,
      "ĠWARRANT": 4888,
      "Do": 4889,
      "PE": 4890,
      "ks": 4891,
      "}\".": 4892,
      "Ġutf": 4893,
      "original": 4894,
      "Ġequivalent": 4895,
      "entry": 4896,
      "Ġbus": 4897,
      "ĠPy": 4898,
      "Ġthreshold": 4899,
      "Ġ22": 4900,
      "eta": 4901,
      "Ġkeywords": 4902,
      "Invalid": 4903,
      "popleft": 4904,
      "ABC": 4905,
      "Ġtransform": 4906,
      "Ġdecrease": 4907,
      "Ġcomparing": 4908,
      "HTTP": 4909,
      "Ġsimilarity": 4910,
      "Ð¾Ð": 4911,
      "05": 4912,
      "Depth": 4913,
      "Group": 4914,
      "Random": 4915,
      "dates": 4916,
      "reet": 4917,
      "Ġpot": 4918,
      "Ġwon": 4919,
      "Ġ'))": 4920,
      "Ġsettings": 4921,
      "ipedia": 4922,
      "ĠEmployee": 4923,
      "Ġskip": 4924,
      "aurant": 4925,
      "Ġcollection": 4926,
      "Child": 4927,
      "Ġincludes": 4928,
      "Sorted": 4929,
      "Ġcorrectly": 4930,
      "squared": 4931,
      "Means": 4932,
      "periment": 4933,
      "ĠSoftware": 4934,
      "Ġframework": 4935,
      "Ġwritten": 4936,
      ")*": 4937,
      "88": 4938,
      "View": 4939,
      "sleep": 4940,
      "Ġvert": 4941,
      "Ġmessages": 4942,
      "Ġep": 4943,
      "Ġdecrypt": 4944,
      "scale": 4945,
      "aches": 4946,
      "Ġmaze": 4947,
      "register": 4948,
      "Ġbitwise": 4949,
      "square": 4950,
      "denominator": 4951,
      "Ġsimilar": 4952,
      "ead": 4953,
      "lon": 4954,
      "vant": 4955,
      "ĠĠĠĠĠĊ": 4956,
      "Ġdx": 4957,
      "ced": 4958,
      "ĠTree": 4959,
      "ption": 4960,
      "Ġ23": 4961,
      "Ġxor": 4962,
      "setup": 4963,
      "Ġheapp": 4964,
      "shuffle": 4965,
      "news": 4966,
      "ighbors": 4967,
      "Ġyears": 4968,
      "Ġfitness": 4969,
      "Matrix": 4970,
      "Ġdiagonal": 4971,
      "=%": 4972,
      "Act": 4973,
      "Bob": 4974,
      "Image": 4975,
      "LA": 4976,
      "Log": 4977,
      "pages": 4978,
      "Ġfur": 4979,
      "Ġinorder": 4980,
      "ality": 4981,
      "rooms": 4982,
      "issubset": 4983,
      "coe": 4984,
      "admin": 4985,
      "Ġstill": 4986,
      "apped": 4987,
      "texts": 4988,
      "Ġplus": 4989,
      "Ġreading": 4990,
      "Ġsyntax": 4991,
      "bottom": 4992,
      "Ġcollapsing": 4993,
      "\"].": 4994,
      "23": 4995,
      "mac": 4996,
      "Ã©": 4997,
      "Ġque": 4998,
      "atform": 4999,
      "thread": 5000,
      "Ġdummy": 5001,
      "ish": 5002,
      "))]": 5003,
      "active": 5004,
      "Remove": 5005,
      "clusters": 5006,
      "foo": 5007,
      "atterns": 5008,
      "Ġruns": 5009,
      "blocks": 5010,
      "Player": 5011,
      "aes": 5012,
      "can": 5013,
      "ron": 5014,
      "wn": 5015,
      "reviews": 5016,
      "ene": 5017,
      "Ġcli": 5018,
      "Ġreq": 5019,
      "Ġpublic": 5020,
      "Ġforward": 5021,
      "ula": 5022,
      "irth": 5023,
      "Ġvowel": 5024,
      "Ġshape": 5025,
      "cursive": 5026,
      "subject": 5027,
      "ERR": 5028,
      "Ġgreat": 5029,
      "movies": 5030,
      "Ġactual": 5031,
      "Ġoptional": 5032,
      "Ġdirections": 5033,
      "Ġphrase": 5034,
      "istics": 5035,
      "dimensional": 5036,
      "Ġcomparison": 5037,
      "ILITY": 5038,
      "simil": 5039,
      "Area": 5040,
      "Client": 5041,
      "]`,": 5042,
      "na": 5043,
      "zA": 5044,
      "Ġticket": 5045,
      "Ġinstru": 5046,
      "Ġrem": 5047,
      "Ġla": 5048,
      "Ġtool": 5049,
      "ords": 5050,
      "coder": 5051,
      "abb": 5052,
      "abilities": 5053,
      "eter": 5054,
      "eting": 5055,
      "peat": 5056,
      "ĠAp": 5057,
      "uss": 5058,
      "ĠMax": 5059,
      "rowser": 5060,
      "ariables": 5061,
      "Ġmovies": 5062,
      "Sequential": 5063,
      "255": 5064,
      "Ġmarks": 5065,
      "++,": 5066,
      "Ġpackages": 5067,
      "Ġeasy": 5068,
      "sigmoid": 5069,
      "permutations": 5070,
      "CM": 5071,
      "Ent": 5072,
      "GE": 5073,
      "Queue": 5074,
      "Sp": 5075,
      "agraph": 5076,
      "}/": 5077,
      "english": 5078,
      "tea": 5079,
      "ĠFOR": 5080,
      "ĠSwap": 5081,
      "ĠName": 5082,
      "Ġminus": 5083,
      "Ġuseful": 5084,
      "ĠĠĠĠĠĠĠĠĠĠĠĠĠĠĠĠĠĠĠĠĠĠĠĠĠĠĠĠĠĠĠĠĠĠ": 5085,
      "Ġcombined": 5086,
      "ampa": 5087,
      "expr": 5088,
      "Ġcloth": 5089,
      "visited": 5090,
      "55": 5091,
      "CON": 5092,
      "Iter": 5093,
      "bn": 5094,
      "fill": 5095,
      "iou": 5096,
      "mstrong": 5097,
      "Ġwins": 5098,
      "Ġcos": 5099,
      "isinstance": 5100,
      ")).": 5101,
      "etter": 5102,
      "Ġdevelop": 5103,
      "igin": 5104,
      "ĠGET": 5105,
      "ĠHow": 5106,
      "ensemble": 5107,
      "Ġargparse": 5108,
      "dirname": 5109,
      "Ġexception": 5110,
      "Ġcalculator": 5111,
      "Ġtokenize": 5112,
      "Ġcls": 5113,
      "fieldnames": 5114,
      "DEF": 5115,
      "Ġappends": 5116,
      "################################################################": 5117,
      "Ġnormalize": 5118,
      "ĠâĢľ": 5119,
      "fficients": 5120,
      "Ġdimensions": 5121,
      "ĠWhile": 5122,
      "anoi": 5123,
      "BST": 5124,
      "NN": 5125,
      "[['": 5126,
      "ias": 5127,
      "times": 5128,
      "warning": 5129,
      "Ġroman": 5130,
      "Ġreaches": 5131,
      "Ġmn": 5132,
      "ĠPost": 5133,
      "Ġcould": 5134,
      "loor": 5135,
      "Ġstudents": 5136,
      "Ġprinting": 5137,
      "pool": 5138,
      "Ġ70": 5139,
      "Ġwebpage": 5140,
      "Ġfilters": 5141,
      "Ġgradient": 5142,
      "triangle": 5143,
      "uffer": 5144,
      "environ": 5145,
      "DEL": 5146,
      "google": 5147,
      "Ġwinner": 5148,
      "hesis": 5149,
      "=\"\")": 5150,
      "aeiou": 5151,
      "ĠDecisionTreeClassifier": 5152,
      "(.*": 5153,
      "Table": 5154,
      "ided": 5155,
      "sid": 5156,
      "orient": 5157,
      "Ġinv": 5158,
      "Ġreviews": 5159,
      "Ġpred": 5160,
      "Ġlate": 5161,
      "Ġeffect": 5162,
      "Ġsecret": 5163,
      "iff": 5164,
      "iform": 5165,
      "numerator": 5166,
      "izz": 5167,
      "Ġsublist": 5168,
      "ĠIncrement": 5169,
      "Ġmatrices": 5170,
      "Ġbacktrack": 5171,
      "Stack": 5172,
      "svm": 5173,
      "Ġpyramid": 5174,
      "ĠCompile": 5175,
      "Exception": 5176,
      "Response": 5177,
      "package": 5178,
      "gene": 5179,
      "ÂłÂłÂłÂł": 5180,
      "download": 5181,
      "Content": 5182,
      "Ġctx": 5183,
      ")\\": 5184,
      "ASE": 5185,
      "Print": 5186,
      "`),": 5187,
      "full": 5188,
      "gr": 5189,
      "ground": 5190,
      "gpu": 5191,
      "mul": 5192,
      "Ġge": 5193,
      "students": 5194,
      "Ġcube": 5195,
      "Ġdot": 5196,
      "Ġ##": 5197,
      "edges": 5198,
      "ĠSuggest": 5199,
      "Ġyet": 5200,
      "Ġchart": 5201,
      "ĠGo": 5202,
      "ĠĠĠĠĠĠĠĠĠĠĠĠĠĠĠĠĠĠĠĠĠĠĠĠĠĠĠĠĠĠĠĠĠĠĠ": 5203,
      "Ġsetup": 5204,
      "Ġ%(": 5205,
      "Ġcomment": 5206,
      "ĠChecks": 5207,
      "Ġconverting": 5208,
      "Ġobjective": 5209,
      "Ġspecify": 5210,
      "Ġexpress": 5211,
      "Ġextracts": 5212,
      "Ġincluded": 5213,
      "================================================================": 5214,
      "Ġchunks": 5215,
      "Ġdistribution": 5216,
      "ĠNumber": 5217,
      "Calculate": 5218,
      "={}):": 5219,
      "Ġidea": 5220,
      "\"}": 5221,
      "IM": 5222,
      "mith": 5223,
      "sl": 5224,
      "uthor": 5225,
      "}'.": 5226,
      "orange": 5227,
      "stand": 5228,
      "encies": 5229,
      "Ġfra": 5230,
      "Ġrecomm": 5231,
      "Ġlcs": 5232,
      "mpty": 5233,
      "loy": 5234,
      "('--": 5235,
      "Ġwhat": 5236,
      "const": 5237,
      "ĠConnect": 5238,
      "validate": 5239,
      "Ġpreviously": 5240,
      "mbers": 5241,
      "Ġhttps": 5242,
      "Ġclosed": 5243,
      "xyz": 5244,
      "Ġachieve": 5245,
      "ĠSVC": 5246,
      "+\"": 5247,
      ".\",": 5248,
      "Cost": 5249,
      "FT": 5250,
      "afe": 5251,
      "mm": 5252,
      "pad": 5253,
      "heses": 5254,
      "Ġfive": 5255,
      "Ġforecast": 5256,
      "Ġinside": 5257,
      "Ġpages": 5258,
      "urses": 5259,
      "Ġdtype": 5260,
      "course": 5261,
      "untime": 5262,
      "Ġ27": 5263,
      "(\"-": 5264,
      "forward": 5265,
      "ibility": 5266,
      "ĠNaive": 5267,
      "Ġvar": 5268,
      "Ġloaded": 5269,
      "Ġ45": 5270,
      "Ġkwargs": 5271,
      "Ġshuffle": 5272,
      "Ġcombine": 5273,
      "Ġheadlines": 5274,
      "Ġvisits": 5275,
      "Ġallowed": 5276,
      "ĠURLs": 5277,
      "ABILITY": 5278,
      "Ġconfiguration": 5279,
      "Ġvertex": 5280,
      "docs": 5281,
      "Substring": 5282,
      "Neighbors": 5283,
      "Ġnormalized": 5284,
      "Ġpreferring": 5285,
      "fficiency": 5286,
      "Ġetc": 5287,
      ")}": 5288,
      "26": 5289,
      "Cap": 5290,
      "bj": 5291,
      "evaluate": 5292,
      "tuples": 5293,
      "ucli": 5294,
      "Ġ``": 5295,
      "dean": 5296,
      "Ġmenu": 5297,
      "Ġden": 5298,
      "defin": 5299,
      "riend": 5300,
      "ĠIP": 5301,
      "ĠIter": 5302,
      "imer": 5303,
      "Ġhaving": 5304,
      "ĠWIT": 5305,
      "ĠDP": 5306,
      "nector": 5307,
      "ĠRewrite": 5308,
      "Ġhex": 5309,
      "parameters": 5310,
      "Ġappending": 5311,
      "ventory": 5312,
      "Ġmaintaining": 5313,
      "NotFound": 5314,
      "SSH": 5315,
      "ĠLinkedList": 5316,
      "Ġparticular": 5317,
      "Ġinterest": 5318,
      "ĠStandardScaler": 5319,
      "uclidean": 5320,
      "Average": 5321,
      "CRE": 5322,
      "Mo": 5323,
      "PT": 5324,
      "Up": 5325,
      "];": 5326,
      "]',": 5327,
      "bus": 5328,
      "Ġicon": 5329,
      "Ġcities": 5330,
      "Ġinit": 5331,
      "Ġ`[": 5332,
      "Ġrobot": 5333,
      "odb": 5334,
      "matizer": 5335,
      "Ġchecked": 5336,
      "ĠKe": 5337,
      "predicted": 5338,
      "Ġdesign": 5339,
      "Ġentries": 5340,
      "white": 5341,
      "help": 5342,
      "END": 5343,
      "ODO": 5344,
      "squares": 5345,
      "Height": 5346,
      "Ġthreading": 5347,
      "Ġignore": 5348,
      "Optimal": 5349,
      "Ġvideo": 5350,
      "Ġpotential": 5351,
      "NotFoundError": 5352,
      "'ve": 5353,
      ")*(": 5354,
      "66": 5355,
      "As": 5356,
      "Py": 5357,
      "Task": 5358,
      "Temp": 5359,
      "extract": 5360,
      "pay": 5361,
      "vader": 5362,
      "rev": 5363,
      "ended": 5364,
      "Ġbisect": 5365,
      "ĠCre": 5366,
      "ĠCON": 5367,
      "icon": 5368,
      "ĠFree": 5369,
      "ĠSer": 5370,
      "tern": 5371,
      "maximum": 5372,
      "Ġrules": 5373,
      "episode": 5374,
      "timestamp": 5375,
      "Ġfolder": 5376,
      "estim": 5377,
      "\"]))": 5378,
      "Ġcalculations": 5379,
      "Dequeue": 5380,
      "Ġclusters": 5381,
      "divisible": 5382,
      "Ġmetadata": 5383,
      "depend": 5384,
      "Ġquestions": 5385,
      "Ġknapsack": 5386,
      "Ġconstraints": 5387,
      "Ġexactly": 5388,
      "ERROR": 5389,
      "500": 5390,
      "And": 5391,
      "Factor": 5392,
      "Gra": 5393,
      "Pol": 5394,
      "PUT": 5395,
      "rm": 5396,
      "Ġable": 5397,
      "Ġduration": 5398,
      "Ġcore": 5399,
      "Ġ[{'": 5400,
      "Ġstra": 5401,
      "Ġchosen": 5402,
      "ptime": 5403,
      "ĠSince": 5404,
      "ĠOnce": 5405,
      "']}": 5406,
      "ipy": 5407,
      "ĠHel": 5408,
      "ension": 5409,
      "compute": 5410,
      "ĠYield": 5411,
      "greater": 5412,
      "factors": 5413,
      "assertTrue": 5414,
      "Ġmakes": 5415,
      "HOUT": 5416,
      "aesar": 5417,
      ")//": 5418,
      "={'": 5419,
      "Att": 5420,
      "Fe": 5421,
      "USER": 5422,
      "YZ": 5423,
      "duration": 5424,
      "vari": 5425,
      "install": 5426,
      "review": 5427,
      "Ġeval": 5428,
      "uts": 5429,
      "Ġ'+": 5430,
      "Ġ\"\")": 5431,
      "tein": 5432,
      "ĠTHE": 5433,
      "plib": 5434,
      "etic": 5435,
      "('%": 5436,
      "series": 5437,
      "arts": 5438,
      "ĠGa": 5439,
      "question": 5440,
      "colors": 5441,
      "Ġ**`": 5442,
      "Ġraises": 5443,
      "Ġlogger": 5444,
      "Ġinstead": 5445,
      "Ġsimulate": 5446,
      "meta": 5447,
      "Ġsubtracting": 5448,
      "records": 5449,
      "inverted": 5450,
      "Ġcycle": 5451,
      "02": 5452,
      "36": 5453,
      "Link": 5454,
      "OS": 5455,
      "On": 5456,
      "RU": 5457,
      "pin": 5458,
      "spy": 5459,
      "Ġtax": 5460,
      "delta": 5461,
      "lex": 5462,
      "itter": 5463,
      "Ġdates": 5464,
      "mpt": 5465,
      "rival": 5466,
      "ghi": 5467,
      "(\"/": 5468,
      "tocol": 5469,
      "Ġdecode": 5470,
      "ĠDepth": 5471,
      "nside": 5472,
      "ĠLabel": 5473,
      "STM": 5474,
      "Ġscipy": 5475,
      "Ġdividing": 5476,
      "Ġincrements": 5477,
      "Ġmaps": 5478,
      "Ġhashlib": 5479,
      "Ġbucket": 5480,
      "Ġfood": 5481,
      "parts": 5482,
      "Head": 5483,
      "Ġprocesses": 5484,
      "Ġsuccessfully": 5485,
      "Pooling": 5486,
      "Ġlatest": 5487,
      "(?": 5488,
      ":'": 5489,
      ":.": 5490,
      "Ac": 5491,
      "Bot": 5492,
      "CE": 5493,
      "QU": 5494,
      "Title": 5495,
      "equal": 5496,
      "gend": 5497,
      "hip": 5498,
      "long": 5499,
      "sure": 5500,
      "ticket": 5501,
      "ured": 5502,
      "Ġcached": 5503,
      "Ġinfin": 5504,
      "Ġscreen": 5505,
      "Ġseq": 5506,
      "diag": 5507,
      "irm": 5508,
      "Ġhy": 5509,
      "Ġweek": 5510,
      "igher": 5511,
      "Ġvisual": 5512,
      "ĠEX": 5513,
      "ĠBFS": 5514,
      "sums": 5515,
      "readth": 5516,
      "cls": 5517,
      "available": 5518,
      "Ġids": 5519,
      "Ġdivided": 5520,
      "ĠKMeans": 5521,
      "Ġincremented": 5522,
      "licing": 5523,
      "Ġvectors": 5524,
      "Ġdeleted": 5525,
      "ynomial": 5526,
      "ALL": 5527,
      "Ġformula": 5528,
      "ÂłÂłÂł": 5529,
      "Form": 5530,
      "Ġbounds": 5531,
      "CHA": 5532,
      "Common": 5533,
      "Apple": 5534,
      ",'": 5535,
      "28": 5536,
      "Cur": 5537,
      "Call": 5538,
      "PORT": 5539,
      "SM": 5540,
      "Sname": 5541,
      "SId": 5542,
      "font": 5543,
      "pare": 5544,
      "sales": 5545,
      "used": 5546,
      "incl": 5547,
      "Ġfahrenheit": 5548,
      "Ġinverse": 5549,
      "Ġmysql": 5550,
      "Ġtowards": 5551,
      "threshold": 5552,
      "Ġball": 5553,
      "Ġiss": 5554,
      "ising": 5555,
      "tool": 5556,
      "ases": 5557,
      "ĠĠĠĠĠĠĠĠĠĠĠĠĠĠĠĠĠĠĠĠĠĠĠĠĠ": 5558,
      "ĠMark": 5559,
      "='')": 5560,
      "Ġ{},": 5561,
      "mong": 5562,
      "Ġoverall": 5563,
      "[:-": 5564,
      "Ġunderstand": 5565,
      "handler": 5566,
      "abcdef": 5567,
      "Ġrelative": 5568,
      "click": 5569,
      "Ġreceived": 5570,
      "------------------------------------------------------------------------": 5571,
      "oriented": 5572,
      "(':": 5573,
      "=[\"": 5574,
      "Case": 5575,
      "CSV": 5576,
      "DFS": 5577,
      "LS": 5578,
      "OUR": 5579,
      "]].": 5580,
      "fol": 5581,
      "pivot": 5582,
      "til": 5583,
      "wrapper": 5584,
      "include": 5585,
      "Ġfact": 5586,
      "Ġpq": 5587,
      "umid": 5588,
      "Ġsear": 5589,
      "ĠTABLE": 5590,
      "ĠTEXT": 5591,
      "quit": 5592,
      "')[": 5593,
      "Ġwhole": 5594,
      "Ġsumming": 5595,
      "ĠOr": 5596,
      "ĠBayes": 5597,
      "avor": 5598,
      "Ġtests": 5599,
      "Ġinsertions": 5600,
      "green": 5601,
      "Ġneeds": 5602,
      "Ġsides": 5603,
      "Ġfaster": 5604,
      "rank": 5605,
      "Ġignoring": 5606,
      "Ġrespond": 5607,
      "ĠEnsure": 5608,
      "ĠFoundation": 5609,
      "ĠWITHOUT": 5610,
      ":`": 5611,
      "CII": 5612,
      "Even": 5613,
      "From": 5614,
      "]}": 5615,
      "aint": 5616,
      "tab": 5617,
      "Ġtr": 5618,
      "stream": 5619,
      "details": 5620,
      "Ġfinally": 5621,
      "Ġslicing": 5622,
      "Ġtoday": 5623,
      "mem": 5624,
      "Ġ'#": 5625,
      "cha": 5626,
      "isupper": 5627,
      "Ġstatic": 5628,
      "Ġ34": 5629,
      "ĠĠĠĠĠĠĠĠĠĠĠĠĠĠĠĠĠĠĠĠĠĠĠĠĠĠĠĠ": 5630,
      "ĠBook": 5631,
      "Then": 5632,
      "submit": 5633,
      "conditions": 5634,
      "Ġreverses": 5635,
      "aved": 5636,
      "ĠListNode": 5637,
      "ocab": 5638,
      "employee": 5639,
      "Ġcalling": 5640,
      "Ġpredicted": 5641,
      "Ġimages": 5642,
      "ometry": 5643,
      "Ġconsists": 5644,
      "Ġredund": 5645,
      "Ġboundary": 5646,
      "cards": 5647,
      "encrypted": 5648,
      "Â°Â°": 5649,
      "(',": 5650,
      "+',": 5651,
      "44": 5652,
      "BU": 5653,
      "Welcome": 5654,
      "Your": 5655,
      "\\'": 5656,
      "aled": 5657,
      "cp": 5658,
      "fail": 5659,
      "gcd": 5660,
      "global": 5661,
      "hi": 5662,
      "hour": 5663,
      "hold": 5664,
      "iris": 5665,
      "je": 5666,
      "lp": 5667,
      "mt": 5668,
      "ope": 5669,
      "}\"": 5670,
      "Ð½": 5671,
      "stac": 5672,
      "atistics": 5673,
      "Ġcat": 5674,
      "Ġele": 5675,
      "ged": 5676,
      "Ġ'')": 5677,
      "ĠType": 5678,
      "Ġwere": 5679,
      "Ġ31": 5680,
      "Ġ400": 5681,
      "exec": 5682,
      "Ġiterations": 5683,
      "ifiers": 5684,
      "Ġcompleted": 5685,
      "Ġalphabetical": 5686,
      "Ġmanip": 5687,
      "policy": 5688,
      "rappe": 5689,
      "Ġdefinition": 5690,
      "Words": 5691,
      "Ġappear": 5692,
      "DIR": 5693,
      "heappush": 5694,
      "Ġdouble": 5695,
      "Ġpublished": 5696,
      "Ġsmtplib": 5697,
      "Ġredundant": 5698,
      "\"][": 5699,
      "AM": 5700,
      "Blob": 5701,
      "CR": 5702,
      "Div": 5703,
      "IME": 5704,
      "TH": 5705,
      "URE": 5706,
      "\\\\": 5707,
      "br": 5708,
      "pc": 5709,
      "paper": 5710,
      "rl": 5711,
      "sender": 5712,
      "sudo": 5713,
      "}.": 5714,
      "~-": 5715,
      "era": 5716,
      "alt": 5717,
      "Ġpuzzle": 5718,
      "Ġlis": 5719,
      "strptime": 5720,
      "cest": 5721,
      "ĠTh": 5722,
      "coins": 5723,
      "ressed": 5724,
      "olt": 5725,
      "Ġdelta": 5726,
      "ĠDeter": 5727,
      "Ġrospy": 5728,
      "Ġsetting": 5729,
      "Ġexceed": 5730,
      "Ġsubsets": 5731,
      "curity": 5732,
      "ĠInsert": 5733,
      "ails": 5734,
      "comment": 5735,
      "lied": 5736,
      "Ġpaint": 5737,
      "Nodes": 5738,
      "Ġfilled": 5739,
      "Ġsuff": 5740,
      "Helper": 5741,
      "ruits": 5742,
      "Ġdelim": 5743,
      "Ġjobs": 5744,
      "Ġimplied": 5745,
      "Trans": 5746,
      "Ġlexicographically": 5747,
      "Ġepisode": 5748,
      "similarity": 5749,
      "ussian": 5750,
      "31": 5751,
      "37": 5752,
      "IG": 5753,
      "Mult": 5754,
      "fun": 5755,
      "ov": 5756,
      "}:": 5757,
      "Ġturtle": 5758,
      "hemat": 5759,
      "itor": 5760,
      "raise": 5761,
      "Ġslot": 5762,
      "Ġformed": 5763,
      "Ġ'_": 5764,
      "ithub": 5765,
      "Ġstones": 5766,
      "Ġarch": 5767,
      "places": 5768,
      "images": 5769,
      "ĠAs": 5770,
      "Ġorg": 5771,
      "ĠLanguage": 5772,
      "Ġ500": 5773,
      "liers": 5774,
      "Ġparam": 5775,
      "minutes": 5776,
      "Ġcorner": 5777,
      "logger": 5778,
      "Ġcommands": 5779,
      "ipping": 5780,
      "Conv": 5781,
      "Ġorders": 5782,
      "ission": 5783,
      "require": 5784,
      "123456": 5785,
      "container": 5786,
      "success": 5787,
      "jkl": 5788,
      "ĠStructures": 5789,
      "Ġfurther": 5790,
      "umidity": 5791,
      "Ġdelimiter": 5792,
      "65": 5793,
      "El": 5794,
      "Generate": 5795,
      "LU": 5796,
      "PU": 5797,
      "dk": 5798,
      "gon": 5799,
      "Ġast": 5800,
      "only": 5801,
      "Ġcm": 5802,
      "Ġnn": 5803,
      "roids": 5804,
      "Ġ120": 5805,
      "ĠPath": 5806,
      "direct": 5807,
      "listen": 5808,
      "imate": 5809,
      "],[": 5810,
      "ĠAll": 5811,
      "term": 5812,
      "Ġ35": 5813,
      "ĠGCD": 5814,
      "percent": 5815,
      "like": 5816,
      "subarray": 5817,
      "Ġgrouping": 5818,
      "titles": 5819,
      "ORD": 5820,
      "ETE": 5821,
      "bsite": 5822,
      "Ġcosts": 5823,
      "Process": 5824,
      "Ġdivisors": 5825,
      "Dictionary": 5826,
      "Ġformatted": 5827,
      "Ġpasswords": 5828,
      "Ġattrs": 5829,
      "Ġauthentic": 5830,
      "document": 5831,
      "ĠPoint": 5832,
      "Ġconstructor": 5833,
      "HOST": 5834,
      "offset": 5835,
      "Ġvarious": 5836,
      "ĠquadTree": 5837,
      "Ġnumerical": 5838,
      "Module": 5839,
      "CREATE": 5840,
      "~-~-": 5841,
      "Ġsuffix": 5842,
      "hot": 5843,
      "nown": 5844,
      "sw": 5845,
      "Ñģ": 5846,
      "regex": 5847,
      "static": 5848,
      "enses": 5849,
      "Ġpadding": 5850,
      "rency": 5851,
      "Ġhref": 5852,
      "('.": 5853,
      "Ġdecor": 5854,
      "traverse": 5855,
      "Ġsubtrees": 5856,
      "ills": 5857,
      "Ġattemp": 5858,
      "Ġsolved": 5859,
      "frequencies": 5860,
      "dfs": 5861,
      "Ġurls": 5862,
      "Ġexplo": 5863,
      "Ġpredicting": 5864,
      "Ġgenerating": 5865,
      "POSE": 5866,
      "ranch": 5867,
      "Level": 5868,
      "airs": 5869,
      "directory": 5870,
      "Ġimprove": 5871,
      "ampaign": 5872,
      ")')": 5873,
      "PAS": 5874,
      "Tag": 5875,
      "ped": 5876,
      "ining": 5877,
      "Ġcred": 5878,
      "than": 5879,
      "ĠPop": 5880,
      "Ġanalyze": 5881,
      "Repository": 5882,
      "ĠAlice": 5883,
      "dddd": 5884,
      "connector": 5885,
      "Ġcalc": 5886,
      "Ġonline": 5887,
      "gitude": 5888,
      "some": 5889,
      "shop": 5890,
      "foot": 5891,
      "ĠXML": 5892,
      "Ġspent": 5893,
      "Ġavoids": 5894,
      "LOCK": 5895,
      "symb": 5896,
      "Mean": 5897,
      "Ġswaps": 5898,
      "deredDict": 5899,
      "ĠASCII": 5900,
      "Ġcomponents": 5901,
      "Ġpassed": 5902,
      "Ġshell": 5903,
      "!\",": 5904,
      "CESS": 5905,
      "Wh": 5906,
      "cart": 5907,
      "ium": 5908,
      "norm": 5909,
      "pg": 5910,
      "vin": 5911,
      "xpath": 5912,
      "Ġtab": 5913,
      "Ġabb": 5914,
      "ons": 5915,
      "Ġsequences": 5916,
      "ann": 5917,
      "ĠCar": 5918,
      "Ġ`_": 5919,
      "ading": 5920,
      "Ġstable": 5921,
      "oney": 5922,
      "]).": 5923,
      "Ġcounting": 5924,
      "Ġmeasure": 5925,
      "classify": 5926,
      "Ġknow": 5927,
      "ĠMongo": 5928,
      "Ġcompany": 5929,
      "training": 5930,
      "ĠOutputs": 5931,
      "mainloop": 5932,
      "ĠRed": 5933,
      "ighbo": 5934,
      "udok": 5935,
      "without": 5936,
      "Ġdepending": 5937,
      "ĠYork": 5938,
      "sprite": 5939,
      "Elements": 5940,
      "ordinate": 5941,
      "Ġchoose": 5942,
      "requires": 5943,
      "Ġmodifying": 5944,
      "Ġcapitalize": 5945,
      "cleaned": 5946,
      "DATA": 5947,
      "'m": 5948,
      "></": 5949,
      "Game": 5950,
      "PS": 5951,
      "ZE": 5952,
      "cimal": 5953,
      "fast": 5954,
      "slot": 5955,
      "tcha": 5956,
      "}_": 5957,
      "inue": 5958,
      "rend": 5959,
      "alle": 5960,
      "Ġsever": 5961,
      "amel": 5962,
      "Ġ`'": 5963,
      "Ġhour": 5964,
      "Ġhigher": 5965,
      "ĠST": 5966,
      "ĠSolution": 5967,
      "ĠWhat": 5968,
      "ĠAut": 5969,
      "001": 5970,
      "Ġtravel": 5971,
      "Ġcontrol": 5972,
      "ĠBy": 5973,
      "ĠMat": 5974,
      "Ġparsing": 5975,
      "scissors": 5976,
      "Ġconverted": 5977,
      "logy": 5978,
      "2020": 5979,
      "Ġinterface": 5980,
      "ually": 5981,
      "ARY": 5982,
      "amounts": 5983,
      "Ġperforming": 5984,
      "Ġmeaning": 5985,
      "ĠCompose": 5986,
      "icks": 5987,
      "Ġauth": 5988,
      "Ġseparator": 5989,
      "Ġpoly": 5990,
      "heappop": 5991,
      "Ġcrawler": 5992,
      "udoku": 5993,
      "87": 5994,
      "Can": 5995,
      "Duplic": 5996,
      "Empty": 5997,
      "Squ": 5998,
      "blob": 5999,
      "cing": 6000,
      "fc": 6001,
      "folder": 6002,
      "highest": 6003,
      "lapping": 6004,
      "lxml": 6005,
      "ools": 6006,
      "vars": 6007,
      "requency": 6008,
      "Ġab": 6009,
      "urlo": 6010,
      "ĠPART": 6011,
      "team": 6012,
      "ĠTODO": 6013,
      "apsed": 6014,
      "---": 6015,
      "Ġaltern": 6016,
      "Ġchain": 6017,
      "Ġhome": 6018,
      "activ": 6019,
      "Ġyes": 6020,
      "ĠAd": 6021,
      "Ġvirtual": 6022,
      "Ġtwice": 6023,
      "usion": 6024,
      "Ġshif": 6025,
      "Ġmathemat": 6026,
      "101": 6027,
      "2021": 6028,
      "ports": 6029,
      "Strings": 6030,
      "Ġkeeping": 6031,
      "licenses": 6032,
      "ĠArray": 6033,
      "positions": 6034,
      "Params": 6035,
      "blank": 6036,
      "Ġthreads": 6037,
      "Ġblank": 6038,
      "Ġdirs": 6039,
      "Ġadjacency": 6040,
      "Ġcards": 6041,
      "Ġhistogram": 6042,
      "Ġsimplify": 6043,
      "guess": 6044,
      "DELETE": 6045,
      "defined": 6046,
      "abcdefghi": 6047,
      "Ġsearches": 6048,
      "urlopen": 6049,
      "Build": 6050,
      "NESS": 6051,
      "VE": 6052,
      "WAR": 6053,
      "[]": 6054,
      "family": 6055,
      "hours": 6056,
      "master": 6057,
      "uv": 6058,
      "uuid": 6059,
      "wxyz": 6060,
      "ercise": 6061,
      "Ġpig": 6062,
      "rock": 6063,
      "Ġwr": 6064,
      "ĠPUR": 6065,
      "cope": 6066,
      "ĠAss": 6067,
      "consecutive": 6068,
      "never": 6069,
      "Ġroom": 6070,
      "ama": 6071,
      "Ġtrace": 6072,
      "ĠMin": 6073,
      "Ġapplic": 6074,
      "Ġplan": 6075,
      "ERCHA": 6076,
      "Ġscal": 6077,
      "Ġtables": 6078,
      "ificant": 6079,
      "Ġexceptions": 6080,
      "NTABILITY": 6081,
      "ITNESS": 6082,
      "backs": 6083,
      "packages": 6084,
      "region": 6085,
      "Ġsignificant": 6086,
      "Ġproperty": 6087,
      "Ġblack": 6088,
      "Ġaccepts": 6089,
      "volt": 6090,
      "Ġalpha": 6091,
      "Ġlayers": 6092,
      "Ġpiece": 6093,
      "capitalize": 6094,
      "Entry": 6095,
      "abcdefghijkl": 6096,
      "ĠPURPOSE": 6097,
      "ERCHANTABILITY": 6098,
      ")\"": 6099,
      ":`:": 6100,
      "=\",": 6101,
      "LM": 6102,
      "Malformed": 6103,
      "QR": 6104,
      "gmail": 6105,
      "kit": 6106,
      "missing": 6107,
      "network": 6108,
      "ple": 6109,
      "pix": 6110,
      "vt": 6111,
      "initial": 6112,
      "stats": 6113,
      "engine": 6114,
      "umul": 6115,
      "Ġest": 6116,
      "Ġdt": 6117,
      "channel": 6118,
      "Ġgu": 6119,
      "ĠTime": 6120,
      "();": 6121,
      "iling": 6122,
      "ĠFITNESS": 6123,
      "vex": 6124,
      "Ġneg": 6125,
      "Ġlet": 6126,
      "ĠSmith": 6127,
      "ĠDis": 6128,
      "appendChild": 6129,
      "settings": 6130,
      "Ġprivate": 6131,
      "minant": 6132,
      "collection": 6133,
      "Ġroots": 6134,
      "Ġ})": 6135,
      "Ġmanner": 6136,
      "000000": 6137,
      "Config": 6138,
      "closest": 6139,
      "Resource": 6140,
      "qrst": 6141,
      "Ġaggreg": 6142,
      "ICUL": 6143,
      "Ġsamples": 6144,
      "optimize": 6145,
      "Ġcandies": 6146,
      "special": 6147,
      "occurrences": 6148,
      "mnop": 6149,
      "LOGGER": 6150,
      "FILE": 6151,
      "Ġdependencies": 6152,
      "ĠKeep": 6153,
      "12345678": 6154,
      "ĠPARTICUL": 6155,
      "ĠPARTICULAR": 6156,
      "Book": 6157,
      "EM": 6158,
      "Find": 6159,
      "Grid": 6160,
      "Jane": 6161,
      "PRO": 6162,
      "XYZ": 6163,
      "YOUR": 6164,
      "jor": 6165,
      "lu": 6166,
      "osing": 6167,
      "ratio": 6168,
      "sol": 6169,
      "writer": 6170,
      "Ġfig": 6171,
      "levant": 6172,
      "Ġrecogn": 6173,
      "Ġnx": 6174,
      "Ġmag": 6175,
      "units": 6176,
      "anfile": 6177,
      "analyzer": 6178,
      "ĠisPrime": 6179,
      "ĠTw": 6180,
      "imin": 6181,
      "ĠSend": 6182,
      "Ġteam": 6183,
      "Ġmembers": 6184,
      "iples": 6185,
      "ĠBST": 6186,
      "ĠMERCHANTABILITY": 6187,
      "Ġsolving": 6188,
      "tokenizer": 6189,
      "Ġrequires": 6190,
      "ession": 6191,
      "Ġsuit": 6192,
      "Ġinitially": 6193,
      "Ġbackend": 6194,
      "dictionaries": 6195,
      "Ġimag": 6196,
      "Ġpostfix": 6197,
      "Negative": 6198,
      "Ġrotate": 6199,
      "Ġconcatenate": 6200,
      "Color": 6201,
      "Ġsymbols": 6202,
      "NeighborsClassifier": 6203,
      "Ġseveral": 6204,
      "uvwxyz": 6205,
      "qrstuvwxyz": 6206,
      "?',": 6207,
      "Dec": 6208,
      "OK": 6209,
      "Odd": 6210,
      "]][": 6211,
      "gress": 6212,
      "gument": 6213,
      "xor": 6214,
      "ero": 6215,
      "orry": 6216,
      "Ġny": 6217,
      "Ġear": 6218,
      "Ġ\"*": 6219,
      "iver": 6220,
      "iso": 6221,
      "rength": 6222,
      "vered": 6223,
      "ĠWord": 6224,
      "ĠAES": 6225,
      "ands": 6226,
      "ĠĠĠĠĠĠĠĠĠĠĠĠĠĠĠĠĠĠĠĠĠĠ": 6227,
      "shtein": 6228,
      "mylist": 6229,
      "Ġimplemented": 6230,
      "Ġparenthesis": 6231,
      "Ġparentheses": 6232,
      "intersection": 6233,
      "Ġtraverses": 6234,
      "Ġmade": 6235,
      "documents": 6236,
      "Ġmultiplying": 6237,
      "black": 6238,
      "ĠFileNotFoundError": 6239,
      "ĠTextBlob": 6240,
      "Ġrecommend": 6241,
      "abcdefghijklmnop": 6242,
      "Net": 6243,
      "One": 6244,
      "Tk": 6245,
      "bre": 6246,
      "bra": 6247,
      "bubble": 6248,
      "holder": 6249,
      "mk": 6250,
      "ny": 6251,
      "pat": 6252,
      "Ġreward": 6253,
      "cture": 6254,
      "Ġsite": 6255,
      "uniform": 6256,
      "animal": 6257,
      "Ġisland": 6258,
      "lour": 6259,
      "isalpha": 6260,
      "()):": 6261,
      "quations": 6262,
      "('{": 6263,
      "people": 6264,
      "Ġdegrees": 6265,
      "ough": 6266,
      "perm": 6267,
      "Ġcalendar": 6268,
      "ĠRemoves": 6269,
      "Ġkth": 6270,
      "lier": 6271,
      "scatter": 6272,
      "Ġtempor": 6273,
      "dbus": 6274,
      "Ġreadable": 6275,
      "Ġmemoized": 6276,
      "responses": 6277,
      "ĠKNeighborsClassifier": 6278,
      "Ġgoes": 6279,
      "Counter": 6280,
      "ĠĠĠĠĠĠĠĠĠĠĠĠĠĠĊ": 6281,
      "framework": 6282,
      "Leaf": 6283,
      "tfidf": 6284,
      "Ġblocks": 6285,
      "blue": 6286,
      "ANG": 6287,
      "ULT": 6288,
      "Ġexecution": 6289,
      "Alchemy": 6290,
      "Ġrequirements": 6291,
      "IFO": 6292,
      "occurrence": 6293,
      "Ġalphanumeric": 6294,
      "Ġsymbol": 6295,
      "Ġeffectively": 6296,
      "ĠGaussian": 6297,
      "abcdefghijklmnopqrstuvwxyz": 6298,
      "\"\\": 6299,
      ",))": 6300,
      ":]:": 6301,
      "Draw": 6302,
      "Dropout": 6303,
      "HI": 6304,
      "Open": 6305,
      "RS": 6306,
      "Write": 6307,
      "cial": 6308,
      "css": 6309,
      "hidden": 6310,
      "nc": 6311,
      "nltk": 6312,
      "vation": 6313,
      "where": 6314,
      "Ñĥ": 6315,
      "oriz": 6316,
      "eno": 6317,
      "sep": 6318,
      "Ġol": 6319,
      "Ġocc": 6320,
      "Ġefficiency": 6321,
      "Ġbra": 6322,
      "anager": 6323,
      "resp": 6324,
      "ĠInside": 6325,
      "Ġancest": 6326,
      "Ġconsole": 6327,
      "ĠGUI": 6328,
      "Ġtraversing": 6329,
      "Ġshutil": 6330,
      "charge": 6331,
      "Ġ64": 6332,
      "Ġ75": 6333,
      "Ġcorpus": 6334,
      "myList": 6335,
      "Ġopening": 6336,
      "ifications": 6337,
      "PIO": 6338,
      "Ġcalculation": 6339,
      "Ġtokenizer": 6340,
      "interface": 6341,
      "'}).": 6342,
      "license": 6343,
      "Ġattr": 6344,
      "hosts": 6345,
      "('/')": 6346,
      "clear": 6347,
      "properties": 6348,
      "ĠâĢĺ": 6349,
      "ĠSQLAlchemy": 6350,
      "Ġcoefficients": 6351,
      "Ġobtained": 6352,
      "Ġmultiplied": 6353,
      "orizon": 6354,
      "'[^": 6355,
      "/(": 6356,
      "06": 6357,
      "=_": 6358,
      "aw": 6359,
      "bind": 6360,
      "bird": 6361,
      "circle": 6362,
      "pur": 6363,
      "tw": 6364,
      "writ": 6365,
      "Ð»": 6366,
      "Ġtx": 6367,
      "ret": 6368,
      "ĠĠĠĠĠĠĠĊ": 6369,
      "alled": 6370,
      "Ġpip": 6371,
      "Ġmaster": 6372,
      "Ġbag": 6373,
      "Ġ\"#": 6374,
      "Ġcourses": 6375,
      "application": 6376,
      "ĠIF": 6377,
      "Ġnearest": 6378,
      "ĠSci": 6379,
      "ĠThese": 6380,
      "ables": 6381,
      "ĠĠĠĠĠĠĠĠĠĠĠĠĠĠĠĠĠĠĠĠĠĠĠĠĠĠĠĠĠĠ": 6382,
      "ĠLast": 6383,
      "Ġminim": 6384,
      "profile": 6385,
      "Ġprimary": 6386,
      "([(": 6387,
      "ownload": 6388,
      "Programming": 6389,
      "running": 6390,
      "Sequence": 6391,
      "Ġmarkdown": 6392,
      "Ġworker": 6393,
      "interest": 6394,
      "Ġchanged": 6395,
      "stopwords": 6396,
      "ĠMySQL": 6397,
      "Ġaccumul": 6398,
      "Ġsimplifies": 6399,
      "multiply": 6400,
      "Ġpalindromic": 6401,
      "estimators": 6402,
      "orizontal": 6403,
      ")`.": 6404,
      ">.": 6405,
      "Car": 6406,
      "FA": 6407,
      "GCD": 6408,
      "IES": 6409,
      "Machine": 6410,
      "Pa": 6411,
      "Password": 6412,
      "RES": 6413,
      "UV": 6414,
      "github": 6415,
      "iases": 6416,
      "uch": 6417,
      "wt": 6418,
      "ÑĢ": 6419,
      "inp": 6420,
      "Ġpay": 6421,
      "Ġsqrt": 6422,
      "unsorted": 6423,
      "cel": 6424,
      "ĠPan": 6425,
      "ĠTake": 6426,
      "ota": 6427,
      "()`:": 6428,
      "digest": 6429,
      "etrie": 6430,
      "Ġhint": 6431,
      "tours": 6432,
      "])**": 6433,
      "nections": 6434,
      "Ġsubsequences": 6435,
      "Ġonto": 6436,
      "Ġnewline": 6437,
      "ĠET": 6438,
      "summary": 6439,
      "alling": 6440,
      "Ġratio": 6441,
      "Ġperfect": 6442,
      "scaled": 6443,
      "Ġsolutions": 6444,
      "Ġscale": 6445,
      "Ġscaler": 6446,
      "Ġallowing": 6447,
      "substrings": 6448,
      "Ġactive": 6449,
      "which": 6450,
      "divis": 6451,
      "Sorting": 6452,
      "Ġyields": 6453,
      "ĉĉĉĉĉĉ": 6454,
      "datasets": 6455,
      "Unit": 6456,
      "Ġrelated": 6457,
      "marks": 6458,
      "Prefix": 6459,
      "Ġstdout": 6460,
      "Query": 6461,
      "Ġrestaurant": 6462,
      "support": 6463,
      "ABCDEF": 6464,
      "avorite": 6465,
      "Ġmathematical": 6466,
      "GB": 6467,
      "Hi": 6468,
      "LD": 6469,
      "LIC": 6470,
      "VIC": 6471,
      "]]:": 6472,
      "dc": 6473,
      "pipeline": 6474,
      "sr": 6475,
      "Ġutil": 6476,
      "remote": 6477,
      "Ġfew": 6478,
      "Ġredist": 6479,
      "Ġremote": 6480,
      "ctangle": 6481,
      "umference": 6482,
      "Ġcoin": 6483,
      "ĠCase": 6484,
      "ithmet": 6485,
      "Ġprov": 6486,
      "Ġstates": 6487,
      "Ġstyle": 6488,
      "Ġstream": 6489,
      "Ġpool": 6490,
      "ĠDuring": 6491,
      "Ġvolume": 6492,
      "amera": 6493,
      "ĠĠĠĠĠĠĠĠĠĠĠĠĠĠĠĠĠĠĠĠĠĠĠĠĠĠĠĠĠ": 6494,
      "Ġbytes": 6495,
      "ĠLCS": 6496,
      "astype": 6497,
      "ĠUS": 6498,
      "Ġrule": 6499,
      "Ġunion": 6500,
      "mongo": 6501,
      "Ġouter": 6502,
      "calc": 6503,
      "compon": 6504,
      "Ġacross": 6505,
      "Ġflip": 6506,
      "CTION": 6507,
      "Ġsources": 6508,
      "Ġsimul": 6509,
      "latin": 6510,
      "ACK": 6511,
      "ĠDataFrame": 6512,
      "ĠMulti": 6513,
      "ratings": 6514,
      "Default": 6515,
      "JavaScript": 6516,
      "operations": 6517,
      "ircumference": 6518,
      "Ġstraight": 6519,
      "Ġredistribute": 6520,
      "ithmetic": 6521,
      "35": 6522,
      "?'": 6523,
      "Binary": 6524,
      "FO": 6525,
      "Is": 6526,
      "IRepository": 6527,
      "buffer": 6528,
      "cipher": 6529,
      "five": 6530,
      "gt": 6531,
      "pan": 6532,
      "present": 6533,
      "pdf": 6534,
      "sers": 6535,
      "Ġquality": 6536,
      "inst": 6537,
      "separ": 6538,
      "Ġfamily": 6539,
      "lections": 6540,
      "Ġpk": 6541,
      "Ġsid": 6542,
      "ĠPO": 6543,
      "Ġhappy": 6544,
      "Ġposs": 6545,
      "terms": 6546,
      "neutral": 6547,
      "amma": 6548,
      "trace": 6549,
      "classification": 6550,
      "ĠReplace": 6551,
      "expected": 6552,
      "addr": 6553,
      "week": 6554,
      "Ġ65": 6555,
      "Ġtemplate": 6556,
      "control": 6557,
      "Ġsche": 6558,
      "ributes": 6559,
      "Ġhelps": 6560,
      "requests": 6561,
      "Ġremains": 6562,
      "unctuations": 6563,
      "Ġobstac": 6564,
      "genre": 6565,
      "ĠReads": 6566,
      "Ġindicates": 6567,
      "seconds": 6568,
      "ĠEnglish": 6569,
      "roller": 6570,
      "entials": 6571,
      "RequestHandler": 6572,
      "Ġviews": 6573,
      "Ġpurchase": 6574,
      "Ġsatisfy": 6575,
      "Ġpalindromes": 6576,
      "ĠWARRANTY": 6577,
      "Ġcosine": 6578,
      "Import": 6579,
      "JK": 6580,
      "Lib": 6581,
      "NO": 6582,
      "NOP": 6583,
      "Sto": 6584,
      "Width": 6585,
      "cer": 6586,
      "just": 6587,
      "ratic": 6588,
      "}]": 6589,
      "ĠÂł": 6590,
      "increasing": 6591,
      "reference": 6592,
      "Ġamong": 6593,
      "Ġful": 6594,
      "Ġwar": 6595,
      "Ġsegment": 6596,
      "ĠCol": 6597,
      "Ġraising": 6598,
      "ques": 6599,
      "oman": 6600,
      "Ġask": 6601,
      "Ġdegree": 6602,
      "ĠĠĠĠĠĠĠĠĠĠĠĠĠĠĠĠĠĠĠĠĠĠĠĠĠĠ": 6603,
      "ĠUsage": 6604,
      "ĠMA": 6605,
      "ĠMap": 6606,
      "ponent": 6607,
      "acing": 6608,
      "Instance": 6609,
      "Ġperimeter": 6610,
      "condition": 6611,
      "Ġfollowed": 6612,
      "auto": 6613,
      "refer": 6614,
      "ĠProcess": 6615,
      "Ġdeleting": 6616,
      "uffix": 6617,
      "Ġbuilding": 6618,
      "Ġcomputing": 6619,
      "regressor": 6620,
      "Ġsignal": 6621,
      "flag": 6622,
      "Ġboxes": 6623,
      "ĠResult": 6624,
      "history": 6625,
      "Ġconsidering": 6626,
      "ĠCreating": 6627,
      "Ġinfinite": 6628,
      "aintext": 6629,
      "ĠTypeError": 6630,
      "ABCDEFG": 6631,
      "Dis": 6632,
      "System": 6633,
      "ear": 6634,
      "fz": 6635,
      "gz": 6636,
      "gres": 6637,
      "lation": 6638,
      "nx": 6639,
      "speech": 6640,
      "using": 6641,
      "yms": 6642,
      "orse": 6643,
      "atively": 6644,
      "Ġfn": 6645,
      "Ġlang": 6646,
      "Ġtoo": 6647,
      "ategy": 6648,
      "enter": 6649,
      "ascal": 6650,
      "ĠTarget": 6651,
      "ifest": 6652,
      "ads": 6653,
      "Ġresource": 6654,
      "Ġstone": 6655,
      "individual": 6656,
      "keyword": 6657,
      "Ġhope": 6658,
      "Ġdice": 6659,
      "peak": 6660,
      "articles": 6661,
      "ĠNot": 6662,
      "proces": 6663,
      "Ġkernel": 6664,
      "Ġaddresses": 6665,
      "Ġcompares": 6666,
      "account": 6667,
      "Ġparagraph": 6668,
      "ĠHash": 6669,
      "Ġindent": 6670,
      "ĠSorts": 6671,
      "Ġsquared": 6672,
      "Token": 6673,
      "relation": 6674,
      "caps": 6675,
      "Ġlevels": 6676,
      "Idx": 6677,
      "Ġreplacement": 6678,
      "media": 6679,
      "Ġplayers": 6680,
      "Positive": 6681,
      "ĠSubstring": 6682,
      "cedence": 6683,
      "folio": 6684,
      ")'": 6685,
      ")',": 6686,
      "27": 6687,
      "84": 6688,
      "Fil": 6689,
      "FLOGGER": 6690,
      "MO": 6691,
      "Opt": 6692,
      "WXYZ": 6693,
      "between": 6694,
      "cg": 6695,
      "dm": 6696,
      "dom": 6697,
      "eq": 6698,
      "fruit": 6699,
      "future": 6700,
      "ggest": 6701,
      "gments": 6702,
      "iate": 6703,
      "mse": 6704,
      "mag": 6705,
      "variables": 6706,
      "Ð²": 6707,
      "heet": 6708,
      "Ġ=>": 6709,
      "dequeue": 6710,
      "Ġins": 6711,
      "Ġinvol": 6712,
      "Ġpin": 6713,
      "Ġpat": 6714,
      "Ġsaved": 6715,
      "Ġmig": 6716,
      "Ġlcm": 6717,
      "Ġ':": 6718,
      "Ġprompt": 6719,
      "Ġchannel": 6720,
      "upon": 6721,
      "updf": 6722,
      "Revenue": 6723,
      "Ġjump": 6724,
      "ops": 6725,
      "iguous": 6726,
      "']`": 6727,
      "ĠfindMax": 6728,
      "country": 6729,
      "ĠMerge": 6730,
      "angles": 6731,
      "arrays": 6732,
      "codes": 6733,
      "Ġperi": 6734,
      "Ġoverlap": 6735,
      "STUV": 6736,
      "Ġtemperatures": 6737,
      "Ġresponses": 6738,
      "Ġsuggest": 6739,
      "ATION": 6740,
      "Ġdescri": 6741,
      "Ġinstances": 6742,
      "Ġverify": 6743,
      "Ġstops": 6744,
      "Ġgenetic": 6745,
      "Ġmetric": 6746,
      "Ġmappings": 6747,
      "Ġflags": 6748,
      "COL": 6749,
      "Ġrotation": 6750,
      "changed": 6751,
      "permutation": 6752,
      "Ġfinish": 6753,
      "closure": 6754,
      "Ġlongitude": 6755,
      "Ġcrawl": 6756,
      "ĠAlgorithm": 6757,
      "Root": 6758,
      "Ġdecorator": 6759,
      "QRSTUV": 6760,
      "HIJK": 6761,
      "NOPQRSTUV": 6762,
      "ABCDEFGHIJK": 6763,
      "NOPQRSTUVWXYZ": 6764,
      "ABCDEFGHIJKLM": 6765,
      "/',": 6766,
      "98": 6767,
      "Close": 6768,
      "Cvm": 6769,
      "LP": 6770,
      "Lem": 6771,
      "MS": 6772,
      "Su": 6773,
      "Ver": 6774,
      "With": 6775,
      "Yes": 6776,
      "done": 6777,
      "rb": 6778,
      "tl": 6779,
      "ture": 6780,
      "wb": 6781,
      "ym": 6782,
      "zone": 6783,
      "Ġë": 6784,
      "ĠValue": 6785,
      "incip": 6786,
      "Ġaster": 6787,
      "ond": 6788,
      "encoding": 6789,
      "Ġred": 6790,
      "Ġnet": 6791,
      "rod": 6792,
      "Ġbro": 6793,
      "memo": 6794,
      "ĠPlayer": 6795,
      "ĠPrefer": 6796,
      "Ġgive": 6797,
      "Ġgives": 6798,
      "iler": 6799,
      "Ġproduce": 6800,
      "Ġreser": 6801,
      "ĠFetch": 6802,
      "Ġhou": 6803,
      "ublish": 6804,
      "serve": 6805,
      "ĠObject": 6806,
      "culator": 6807,
      "usage": 6808,
      "ĠReject": 6809,
      "gorithms": 6810,
      "criminant": 6811,
      "Ġintent": 6812,
      "exception": 6813,
      "Ġruntime": 6814,
      "Ġparses": 6815,
      "maining": 6816,
      "Ġhandler": 6817,
      "ĠSelect": 6818,
      "translate": 6819,
      "Ġscraping": 6820,
      "Status": 6821,
      "unctools": 6822,
      "Ġregister": 6823,
      "Ġfoot": 6824,
      "ranty": 6825,
      "Ġmember": 6826,
      "Ġpady": 6827,
      "perience": 6828,
      "Ġcapitalized": 6829,
      "Ġassigned": 6830,
      "Predict": 6831,
      "Box": 6832,
      "********": 6833,
      "serialize": 6834,
      "LAY": 6835,
      "inclusive": 6836,
      "ighbour": 6837,
      "Cvmfs": 6838,
      "\"+": 6839,
      ")\")": 6840,
      ".'''": 6841,
      "95": 6842,
      "?\",": 6843,
      "Ap": 6844,
      "Bar": 6845,
      "Ge": 6846,
      "LL": 6847,
      "Manager": 6848,
      "Person": 6849,
      "TY": 6850,
      "Tango": 6851,
      "`**:": 6852,
      "birth": 6853,
      "eam": 6854,
      "hook": 6855,
      "ious": 6856,
      "ernal": 6857,
      "enqueue": 6858,
      "Ġrelevant": 6859,
      "riangle": 6860,
      "ĠCO": 6861,
      "ĠTemp": 6862,
      "Ġstorage": 6863,
      "Ġhidden": 6864,
      "Ġelimin": 6865,
      "Ġ{:.": 6866,
      "Ġrooms": 6867,
      "ĠGra": 6868,
      "mplex": 6869,
      "prop": 6870,
      "experiment": 6871,
      "Ġtimeout": 6872,
      "Ġcomm": 6873,
      "john": 6874,
      "ĠExpected": 6875,
      "fox": 6876,
      "Ġraised": 6877,
      "Ġheadline": 6878,
      "maps": 6879,
      "Ġparty": 6880,
      "Ġentered": 6881,
      "Address": 6882,
      "bounds": 6883,
      "buf": 6884,
      "ĠFilters": 6885,
      "Ġfinished": 6886,
      "ĠCalculates": 6887,
      "INTER": 6888,
      "wikipedia": 6889,
      "ĠHello": 6890,
      "Ġexceeds": 6891,
      "ĠMongoDB": 6892,
      "umulative": 6893,
      "gumentParser": 6894,
      "Ġwarranty": 6895,
      "ABCDEFGHIJKLMNOPQRSTUVWXYZ": 6896,
      "Auth": 6897,
      "DA": 6898,
      "NS": 6899,
      "Ori": 6900,
      "Variable": 6901,
      "WS": 6902,
      "house": 6903,
      "sn": 6904,
      "sDict": 6905,
      "tp": 6906,
      "yy": 6907,
      "}\\": 6908,
      "Ġ~": 6909,
      "ergy": 6910,
      "ength": 6911,
      "deps": 6912,
      "Ġfuture": 6913,
      "Ġsge": 6914,
      "Ġsig": 6915,
      "esc": 6916,
      "Ġbetter": 6917,
      "Ġsell": 6918,
      "strs": 6919,
      "ĠPlot": 6920,
      "resource": 6921,
      "ational": 6922,
      "ĠSim": 6923,
      "neg": 6924,
      "Ġ36": 6925,
      "ĠOn": 6926,
      "ĠLib": 6927,
      "ĠEuclidean": 6928,
      "ĠBob": 6929,
      "parsed": 6930,
      "ĠRetrie": 6931,
      "shift": 6932,
      "Ġsched": 6933,
      "ĠConfig": 6934,
      "middle": 6935,
      "Ġdisk": 6936,
      "ĠSecond": 6937,
      "ĠĠĠĠĠĠĠĠĠĠĠĠĠĠĠĠĠĠĠĠĠĠĠĠĠĠĠĠĠĠĠĠĠĠĠĠĠĠĠĠ": 6938,
      "Ġextracted": 6939,
      "Ġincrementing": 6940,
      "intervals": 6941,
      "uffled": 6942,
      "Ġencryption": 6943,
      "Ġdetermines": 6944,
      "ĠTraining": 6945,
      "Point": 6946,
      "3333": 6947,
      "Ġswapped": 6948,
      "Ġwriting": 6949,
      "Ġpurpose": 6950,
      "Ġaccumulate": 6951,
      "videos": 6952,
      "xxxxxxxx": 6953,
      "pipfile": 6954,
      "Ġcomponent": 6955,
      "Ġlayout": 6956,
      "SIZE": 6957,
      "Ġclick": 6958,
      "odbye": 6959,
      "Ġperiod": 6960,
      "%(": 6961,
      "86": 6962,
      ">=": 6963,
      "Bl": 6964,
      "Banana": 6965,
      "ECT": 6966,
      "Failed": 6967,
      "Generator": 6968,
      "Mon": 6969,
      "Move": 6970,
      "YY": 6971,
      "cfg": 6972,
      "fib": 6973,
      "lates": 6974,
      "nitude": 6975,
      "pick": 6976,
      "simple": 6977,
      "tv": 6978,
      "ìĿ": 6979,
      "Ġ],": 6980,
      "Ġforest": 6981,
      "leet": 6982,
      "Ġredirect": 6983,
      "room": 6984,
      "Ġmail": 6985,
      "Ġwater": 6986,
      "Ġbg": 6987,
      "Ġforce": 6988,
      "ĠisPalindrome": 6989,
      "Ġgr": 6990,
      "cos": 6991,
      "apply": 6992,
      "verter": 6993,
      "ĠItem": 6994,
      "dians": 6995,
      "platform": 6996,
      "Ġconsum": 6997,
      "(\",": 6998,
      "(\"{}": 6999,
      "ĠSave": 7000,
      "\");": 7001,
      "Ġjo": 7002,
      "Ġsummar": 7003,
      "Ġvers": 7004,
      "abled": 7005,
      "Ġbyte": 7006,
      "traction": 7007,
      "Ġlock": 7008,
      "aging": 7009,
      "Ġgetting": 7010,
      "exc": 7011,
      "lengths": 7012,
      "Ġcomma": 7013,
      "inalg": 7014,
      "minimum": 7015,
      "Ġgrad": 7016,
      "ĠProduce": 7017,
      "Ġ123": 7018,
      "Ġphi": 7019,
      "Web": 7020,
      "Ġagent": 7021,
      "Ġgenre": 7022,
      "Ġslices": 7023,
      "ĠImporting": 7024,
      "ĠImportError": 7025,
      "endswith": 7026,
      "Ġselected": 7027,
      "cloud": 7028,
      "Ġconstraint": 7029,
      "ĠContinue": 7030,
      "ĠChoose": 7031,
      "Assert": 7032,
      "dependent": 7033,
      "#$": 7034,
      ">')": 7035,
      "?\"": 7036,
      "Bu": 7037,
      "Cour": 7038,
      "Session": 7039,
      "TER": 7040,
      "WN": 7041,
      "given": 7042,
      "ho": 7043,
      "linalg": 7044,
      "oom": 7045,
      "pid": 7046,
      "spaces": 7047,
      "tles": 7048,
      "vial": 7049,
      "ĠčĊ": 7050,
      "rem": 7051,
      "repr": 7052,
      "recursive": 7053,
      "remaining": 7054,
      "sect": 7055,
      "Ġflight": 7056,
      "Ġfruit": 7057,
      "istration": 7058,
      "Ġsecs": 7059,
      "rick": 7060,
      "Ġgtk": 7061,
      "ĠCl": 7062,
      "ado": 7063,
      "ĠImage": 7064,
      "Ġalgorithms": 7065,
      "grades": 7066,
      "ĠFIFO": 7067,
      "servers": 7068,
      "ibling": 7069,
      "ĠNo": 7070,
      "ĠOS": 7071,
      "programming": 7072,
      "Ġprevent": 7073,
      "Ġclassified": 7074,
      "ĠInter": 7075,
      "Ġaddr": 7076,
      "phrase": 7077,
      "quired": 7078,
      "Ġ_(\"": 7079,
      "Ġ/=": 7080,
      "answers": 7081,
      "Ġgrades": 7082,
      "Ġpopular": 7083,
      "dirs": 7084,
      "Ġoccurs": 7085,
      "Ġinterpre": 7086,
      "Ġrepresented": 7087,
      "10000": 7088,
      "Ġparents": 7089,
      "Ġflipped": 7090,
      "male": 7091,
      "costs": 7092,
      "Ġheights": 7093,
      "topic": 7094,
      "ĠArmstrong": 7095,
      "Ġneighboring": 7096,
      "9999": 7097,
      "note": 7098,
      "Subject": 7099,
      "Anagram": 7100,
      "Ġseparated": 7101,
      "Ġguessed": 7102,
      "Ġpadx": 7103,
      "Command": 7104,
      "ĠLearning": 7105,
      "Ġclustering": 7106,
      "choices": 7107,
      "wiki": 7108,
      "Operations": 7109,
      "Ġheappush": 7110,
      "Ġdenominator": 7111,
      "SMTP": 7112,
      "Ġpossib": 7113,
      "incipal": 7114,
      "\"]:": 7115,
      "85": 7116,
      ":\\": 7117,
      "BO": 7118,
      "Email": 7119,
      "Pl": 7120,
      "Page": 7121,
      "Range": 7122,
      "cert": 7123,
      "events": 7124,
      "hone": 7125,
      "knn": 7126,
      "pie": 7127,
      "publis": 7128,
      "Ġtie": 7129,
      "rexi": 7130,
      "Ġapt": 7131,
      "Ġ=\",": 7132,
      "deb": 7133,
      "Ġreversing": 7134,
      "Ġsudo": 7135,
      "Ġlicense": 7136,
      "rive": 7137,
      "Ġ\"{": 7138,
      "Ġgl": 7139,
      "Ġstation": 7140,
      "Ġarrival": 7141,
      "ĠFill": 7142,
      "Ġconsumer": 7143,
      "Ġconcise": 7144,
      "(\"*": 7145,
      "Ġdialog": 7146,
      "Ġleap": 7147,
      "ĠSimple": 7148,
      "services": 7149,
      "Ġdecoded": 7150,
      "ĠDE": 7151,
      "acket": 7152,
      "Ġlove": 7153,
      "ĠLI": 7154,
      "aka": 7155,
      "Ġenergy": 7156,
      "ĠEl": 7157,
      "ĠEmail": 7158,
      "pygame": 7159,
      "sonants": 7160,
      "website": 7161,
      "Ġunicode": 7162,
      "Ġ101": 7163,
      "Ġcommit": 7164,
      "Ġcontainer": 7165,
      "avig": 7166,
      "ĠHttp": 7167,
      "Ġ97": 7168,
      "Ġgrace": 7169,
      "library": 7170,
      "ĠĠĠĠĠĠĠĠĠĠĠĠĠĠĠĠĠĠĠĠĠĠĠĠĠĠĠĠĠĠĠĠĠĠĠĠĠĠĠĠĠĠĠ": 7171,
      "'}]": 7172,
      "spring": 7173,
      "ĠDefault": 7174,
      "Ġsplits": 7175,
      "Ġloading": 7176,
      "modified": 7177,
      "Maximum": 7178,
      "Ġsomething": 7179,
      "Ġboundaries": 7180,
      "Ġholds": 7181,
      "metric": 7182,
      "bucket": 7183,
      "small": 7184,
      "Ġratings": 7185,
      "Define": 7186,
      "haust": 7187,
      "video": 7188,
      "jscomp": 7189,
      "Ġ\"_\"": 7190,
      "ĠHandle": 7191,
      "Ġinstructions": 7192,
      "ĠTwitter": 7193,
      "Ġoldest": 7194,
      "Ġstraightforward": 7195,
      "'re": 7196,
      ".\\": 7197,
      "150": 7198,
      "70": 7199,
      "77": 7200,
      "CV": 7201,
      "Longest": 7202,
      "OG": 7203,
      "PC": 7204,
      "WORD": 7205,
      "ai": 7206,
      "break": 7207,
      "nb": 7208,
      "oo": 7209,
      "px": 7210,
      "rf": 7211,
      "same": 7212,
      "Ġut": 7213,
      "Ġvery": 7214,
      "inx": 7215,
      "inorder": 7216,
      "rece": 7217,
      "orn": 7218,
      "del": 7219,
      "detect": 7220,
      "arsh": 7221,
      "rases": 7222,
      "Ġder": 7223,
      "isted": 7224,
      "Ġseat": 7225,
      "Ġ'{}": 7226,
      "Ġislice": 7227,
      "Ġguid": 7228,
      "isibility": 7229,
      "Ġarithmetic": 7230,
      "ellow": 7231,
      "keywords": 7232,
      "Ġconnections": 7233,
      "Ġelapsed": 7234,
      "Ġleaves": 7235,
      "Ġdeviation": 7236,
      "ĠAge": 7237,
      "Ġordered": 7238,
      "Ġ33": 7239,
      "Ġexhaust": 7240,
      "ĠError": 7241,
      "Ġ42": 7242,
      "Ġiterative": 7243,
      "Ġmount": 7244,
      "reads": 7245,
      "collections": 7246,
      "uda": 7247,
      "rectangle": 7248,
      "Ġmultiples": 7249,
      "compare": 7250,
      "Ġdiscount": 7251,
      "Ġaccessing": 7252,
      "Ġinternal": 7253,
      "validation": 7254,
      "Deg": 7255,
      "Ġpredicts": 7256,
      "edian": 7257,
      "Ġdescent": 7258,
      "00000000": 7259,
      "Example": 7260,
      "Ġmarker": 7261,
      "Ġworking": 7262,
      "ABASE": 7263,
      "Ġ(\"%": 7264,
      "goal": 7265,
      "good": 7266,
      "poly": 7267,
      "Ġindicate": 7268,
      "Ġvariant": 7269,
      "cells": 7270,
      "Ġsupported": 7271,
      "Computer": 7272,
      "Ġunittest": 7273,
      "Duplicates": 7274,
      "mkdir": 7275,
      "Parent": 7276,
      "Ġgracefully": 7277,
      "-]+": 7278,
      "Ag": 7279,
      "BLOCK": 7280,
      "Dif": 7281,
      "Fine": 7282,
      "Menu": 7283,
      "SP": 7284,
      "[\\": 7285,
      "_)": 7286,
      "clock": 7287,
      "eval": 7288,
      "gly": 7289,
      "ham": 7290,
      "imp": 7291,
      "llist": 7292,
      "lru": 7293,
      "mak": 7294,
      "occ": 7295,
      "sq": 7296,
      "sync": 7297,
      "tls": 7298,
      "walk": 7299,
      "Ġten": 7300,
      "repeat": 7301,
      "origin": 7302,
      "atype": 7303,
      "season": 7304,
      "alaries": 7305,
      "Ġrecent": 7306,
      "Ġpatterns": 7307,
      "roy": 7308,
      "uest": 7309,
      "Ġsep": 7310,
      "orders": 7311,
      "chor": 7312,
      "ĠFe": 7313,
      "etings": 7314,
      "]);": 7315,
      "])]": 7316,
      "Req": 7317,
      "ĠNew": 7318,
      "ĠNetwork": 7319,
      "Ġwho": 7320,
      "Ġexplain": 7321,
      "questions": 7322,
      "Ġcontiguous": 7323,
      "phinx": 7324,
      "Ġendpoints": 7325,
      "ignKey": 7326,
      "Ġplain": 7327,
      "sha": 7328,
      "learning": 7329,
      "Ġ_,": 7330,
      "udget": 7331,
      "scaler": 7332,
      "Ġspecies": 7333,
      "Ġanswers": 7334,
      "company": 7335,
      "ĠAdding": 7336,
      "Ġfeed": 7337,
      "ĠPrinting": 7338,
      "Ġexpand": 7339,
      "Encoder": 7340,
      "layout": 7341,
      "refs": 7342,
      "Ġpasswd": 7343,
      "Section": 7344,
      "Ġinstalled": 7345,
      "Ġrepeating": 7346,
      "Ġbitmask": 7347,
      "Ġdecreasing": 7348,
      "MAX": 7349,
      "descending": 7350,
      "Load": 7351,
      "Ġcoefficient": 7352,
      "ĠTransform": 7353,
      "UMER": 7354,
      "ISTS": 7355,
      "ĠPrice": 7356,
      "Ġheappop": 7357,
      "ĠEXISTS": 7358,
      "Ġbracket": 7359,
      "VICE": 7360,
      "Aut": 7361,
      "Embedding": 7362,
      "IV": 7363,
      "Red": 7364,
      "Sign": 7365,
      "Spec": 7366,
      "blog": 7367,
      "fact": 7368,
      "final": 7369,
      "flatten": 7370,
      "ker": 7371,
      "lang": 7372,
      "slow": 7373,
      "tions": 7374,
      "vo": 7375,
      "vowel": 7376,
      "vocab": 7377,
      "{\"": 7378,
      "Ð¼": 7379,
      "Ġve": 7380,
      "reach": 7381,
      "orch": 7382,
      "seed": 7383,
      "decreasing": 7384,
      "Ġfailed": 7385,
      "legend": 7386,
      "Ġrestr": 7387,
      "Ġspeech": 7388,
      "Ġmoney": 7389,
      "Ġlr": 7390,
      "uel": 7391,
      "Ġ'(':": 7392,
      "analysis": 7393,
      "ascending": 7394,
      "ĠPol": 7395,
      "edit": 7396,
      "Ġ(%": 7397,
      "adj": 7398,
      "icate": 7399,
      "Ġalign": 7400,
      "Ġleading": 7401,
      "toarray": 7402,
      "Ġdevices": 7403,
      "ĠAcc": 7404,
      "ĠApi": 7405,
      "Ġimportant": 7406,
      "ĠGIRepository": 7407,
      "ĠĠĠĠĠĠĠĠĠĠĠĠĠĠĠĠĠĠĠĠĊ": 7408,
      "ĠLength": 7409,
      "Ġenough": 7410,
      "possible": 7411,
      "matches": 7412,
      "Ġpreprocess": 7413,
      "Ġhealth": 7414,
      "ĠMo": 7415,
      "anging": 7416,
      "############": 7417,
      "acion": 7418,
      "Ġtexts": 7419,
      "Ġdoing": 7420,
      "1024": 7421,
      "Ġoutcome": 7422,
      "scra": 7423,
      "[:]": 7424,
      "blems": 7425,
      "Ġtopic": 7426,
      "Ġcallback": 7427,
      "ugin": 7428,
      "pped": 7429,
      "Ġimmediate": 7430,
      "Ġpymongo": 7431,
      "################################################": 7432,
      "Ġavoiding": 7433,
      "ikipedia": 7434,
      "Ġproperly": 7435,
      "destination": 7436,
      "Ġdefining": 7437,
      "NUM": 7438,
      "HTML": 7439,
      "\\.\\": 7440,
      "Ġmutation": 7441,
      "havi": 7442,
      "XXXX": 7443,
      "aaaa": 7444,
      "HTTPRequestHandler": 7445,
      "Ġexpressions": 7446,
      "\"][\"": 7447,
      "CRET": 7448,
      "Ġorgan": 7449,
      "123456789": 7450,
      "Ġtemporary": 7451,
      "written": 7452,
      "120": 7453,
      "Fl": 7454,
      "LSTM": 7455,
      "Run": 7456,
      "SO": 7457,
      "Swap": 7458,
      "Url": 7459,
      "_%": 7460,
      "dx": 7461,
      "fd": 7462,
      "ience": 7463,
      "messages": 7464,
      "slice": 7465,
      "suffix": 7466,
      "tar": 7467,
      "uc": 7468,
      "uit": 7469,
      "ä¸": 7470,
      "ories": 7471,
      "ordered": 7472,
      "Ġcart": 7473,
      "Ġcumulative": 7474,
      "Ġfail": 7475,
      "Ġface": 7476,
      "Ġfac": 7477,
      "Ġfix": 7478,
      "Ġfriend": 7479,
      "aring": 7480,
      "lete": 7481,
      "Ġtodo": 7482,
      "Ġborder": 7483,
      "Ġgit": 7484,
      "ĠClose": 7485,
      "Ġ[('": 7486,
      "coordinates": 7487,
      "ĠId": 7488,
      "Ġresol": 7489,
      "Ġstick": 7490,
      "dients": 7491,
      "plus": 7492,
      "Ġ29": 7493,
      "ĠFlatten": 7494,
      "iral": 7495,
      "ĠmaxVal": 7496,
      "Ġmaximize": 7497,
      "today": 7498,
      "Ġdeep": 7499,
      "Ġfunctionality": 7500,
      "Record": 7501,
      "ĠDropout": 7502,
      "Ġbehavi": 7503,
      "Ġsumm": 7504,
      "Ġexcl": 7505,
      "Ġsubmit": 7506,
      "Ġenamel": 7507,
      "Ġpref": 7508,
      "ssb": 7509,
      "ĠMachine": 7510,
      "feat": 7511,
      "ĠJohn": 7512,
      "Ġlooping": 7513,
      "Ġoutliers": 7514,
      "sche": 7515,
      "formatted": 7516,
      "Ġgreeting": 7517,
      "distances": 7518,
      "Ġadmin": 7519,
      "Ġintermediate": 7520,
      "Device": 7521,
      "ormalize": 7522,
      "MaxPooling": 7523,
      "Ġtermin": 7524,
      "ĠComments": 7525,
      "ĠCombine": 7526,
      "Ġeasier": 7527,
      "Thread": 7528,
      "Ġlatitude": 7529,
      "direction": 7530,
      "Ġquadratic": 7531,
      "ĠTokenize": 7532,
      "candid": 7533,
      "Ġshopping": 7534,
      "Ġdecrypted": 7535,
      "Activity": 7536,
      "Ġabbre": 7537,
      "INTERF": 7538,
      "ĠRetrieve": 7539,
      "#$%": 7540,
      "300": 7541,
      "<!": 7542,
      "Fr": 7543,
      "Flatten": 7544,
      "Lar": 7545,
      "Vowels": 7546,
      "Version": 7547,
      "]-": 7548,
      "]{": 7549,
      "gb": 7550,
      "patterns": 7551,
      "sses": 7552,
      "tax": 7553,
      "vdi": 7554,
      "orth": 7555,
      "states": 7556,
      "Ġflow": 7557,
      "Ġinher": 7558,
      "Ġreason": 7559,
      "Ġmul": 7560,
      "Ġbel": 7561,
      "unicode": 7562,
      "Ġsecurity": 7563,
      "ride": 7564,
      "Ġcook": 7565,
      "lope": 7566,
      "loaded": 7567,
      "Ġprofile": 7568,
      "Ġprodu": 7569,
      "omal": 7570,
      "plied": 7571,
      "etc": 7572,
      "Ġlever": 7573,
      "ĠSpec": 7574,
      "Recursive": 7575,
      "termin": 7576,
      "ĠNote": 7577,
      "operator": 7578,
      "Ġwhite": 7579,
      "Ġcountry": 7580,
      "Ġorigin": 7581,
      "Ġvolt": 7582,
      "oreignKey": 7583,
      "Ġexpen": 7584,
      "Ġexperiment": 7585,
      "Ġstrategy": 7586,
      "Ġgetattr": 7587,
      "=====": 7588,
      "Ġplatform": 7589,
      "jobs": 7590,
      "ĠRE": 7591,
      "ctories": 7592,
      "iterator": 7593,
      "errors": 7594,
      "Ġurlparse": 7595,
      "Ġimplementations": 7596,
      "dules": 7597,
      "ĠProduct": 7598,
      "Arrows": 7599,
      "Ġgoing": 7600,
      "opts": 7601,
      "related": 7602,
      "Context": 7603,
      "packet": 7604,
      "Ġaux": 7605,
      "MENT": 7606,
      "Needed": 7607,
      "Ġcentroids": 7608,
      "Ġvariance": 7609,
      "Ġmerging": 7610,
      "ĠInitializing": 7611,
      "Ġflattened": 7612,
      "Show": 7613,
      "ĠTokenizer": 7614,
      "Ġinstruction": 7615,
      "ĠOrderedDict": 7616,
      "Ġexplore": 7617,
      "ĠMatrix": 7618,
      "Predicted": 7619,
      "#------------------------------------------------------------------------": 7620,
      "->": 7621,
      "29": 7622,
      "34": 7623,
      "CP": 7624,
      "Cre": 7625,
      "ENT": 7626,
      "EGER": 7627,
      "Gre": 7628,
      "Host": 7629,
      "IR": 7630,
      "Over": 7631,
      "OUT": 7632,
      "SION": 7633,
      "Simple": 7634,
      "Yield": 7635,
      "ever": 7636,
      "free": 7637,
      "frappe": 7638,
      "mission": 7639,
      "since": 7640,
      "solve": 7641,
      "uce": 7642,
      "xs": 7643,
      "initialize": 7644,
      "reset": 7645,
      "Ġaround": 7646,
      "sters": 7647,
      "storage": 7648,
      "atched": 7649,
      "Ġiris": 7650,
      "aling": 7651,
      "algorithm": 7652,
      "Ġrepo": 7653,
      "Ġrefs": 7654,
      "Ġsec": 7655,
      "ascript": 7656,
      "Ġ\":": 7657,
      "ĠCustomer": 7658,
      "islower": 7659,
      "isMessage": 7660,
      "Ġugly": 7661,
      "Ġstatistics": 7662,
      "Ġstrength": 7663,
      "('{}": 7664,
      "Read": 7665,
      "ĠDiv": 7666,
      "ĠACTION": 7667,
      "\")]": 7668,
      "ĠĠĠĠĠĠĠĠĠĠĠĠĠĠĠĠĠĠĠĠĠĠĠĠĠĠĠĠĠĠĠĠĠĠĠĠĠĠĠ": 7669,
      "Ġexclude": 7670,
      "ĠRequest": 7671,
      "aily": 7672,
      "---------": 7673,
      "Ġcompile": 7674,
      "Ġcompared": 7675,
      "Ġunits": 7676,
      "charset": 7677,
      "Ġ:\",": 7678,
      "subsequence": 7679,
      "outcome": 7680,
      "clade": 7681,
      "avascript": 7682,
      "Ġinteract": 7683,
      "argmax": 7684,
      "ĠVariable": 7685,
      "ĠVersion": 7686,
      "trivial": 7687,
      "Ġcontinuous": 7688,
      "Ġsynon": 7689,
      "Ġdescript": 7690,
      "maz": 7691,
      "what": 7692,
      "Convert": 7693,
      "Ġbuilds": 7694,
      "ENSE": 7695,
      "ĠOptimal": 7696,
      "Points": 7697,
      "omino": 7698,
      "Ġciphertext": 7699,
      "Ġranges": 7700,
      "abspath": 7701,
      "struction": 7702,
      "skip": 7703,
      "stract": 7704,
      "hexdigest": 7705,
      "Ġpieces": 7706,
      "ĠMethod": 7707,
      "Regressor": 7708,
      "Ġanimals": 7709,
      "ĠWARRANTIES": 7710,
      "Ġtickets": 7711,
      "abbix": 7712,
      "Graph": 7713,
      "Account": 7714,
      "Ġhyper": 7715,
      "Multi": 7716,
      "allel": 7717,
      "Ġmembership": 7718,
      "ĠIdent": 7719,
      "omalies": 7720,
      "isMessageNeeded": 7721,
      "';": 7722,
      "(\\": 7723,
      ":')": 7724,
      "=',": 7725,
      "=\\\"": 7726,
      "Frequency": 7727,
      "Job": 7728,
      "Once": 7729,
      "UID": 7730,
      "XML": 7731,
      "[@": 7732,
      "cred": 7733,
      "ece": 7734,
      "equation": 7735,
      "four": 7736,
      "kip": 7737,
      "kernel": 7738,
      "known": 7739,
      "live": 7740,
      "pet": 7741,
      "orph": 7742,
      "seudo": 7743,
      "Ġcb": 7744,
      "decimal": 7745,
      "Ġfg": 7746,
      "Ġflower": 7747,
      "Ġfunctools": 7748,
      "allen": 7749,
      "alchemy": 7750,
      "Ġreject": 7751,
      "Ġspa": 7752,
      "Ġwidget": 7753,
      "mps": 7754,
      "unded": 7755,
      "intent": 7756,
      "ĠPlease": 7757,
      "edy": 7758,
      "teen": 7759,
      "lott": 7760,
      "__,": 7761,
      "Ġascii": 7762,
      "Ġhyp": 7763,
      "Ġhorizontal": 7764,
      "modules": 7765,
      "Ġdeck": 7766,
      "ĠWait": 7767,
      "ĠAnd": 7768,
      "perimeter": 7769,
      "ĠReg": 7770,
      "Ġstrict": 7771,
      "matize": 7772,
      "ĠButton": 7773,
      "ĠBubble": 7774,
      "ĠInc": 7775,
      "Ġgets": 7776,
      "Ġtotals": 7777,
      "Ġwhenever": 7778,
      "Ġhasattr": 7779,
      "ĠRoman": 7780,
      "ĠWeb": 7781,
      "ĠConv": 7782,
      "embed": 7783,
      "Proper": 7784,
      "Ġinserted": 7785,
      "Args": 7786,
      "Ġfiltering": 7787,
      "ĠquickSort": 7788,
      "Connection": 7789,
      "Ġmarked": 7790,
      "factory": 7791,
      "methods": 7792,
      "ikit": 7793,
      "Ġclosing": 7794,
      "Ġplaced": 7795,
      "Results": 7796,
      "Ġoperators": 7797,
      "period": 7798,
      "smtp": 7799,
      "LIB": 7800,
      "sqlite": 7801,
      "Loop": 7802,
      "Ġ>>>": 7803,
      "DATABASE": 7804,
      "Description": 7805,
      "Ġvertices": 7806,
      "Ġmnist": 7807,
      "Ġauthentication": 7808,
      "WARE": 7809,
      "NetLem": 7810,
      "Ġobstacle": 7811,
      "Ġbehavior": 7812,
      "NetLemmatizer": 7813,
      "Cl": 7814,
      "City": 7815,
      "CCESS": 7816,
      "Flow": 7817,
      "Fizz": 7818,
      "IX": 7819,
      "IAL": 7820,
      "LT": 7821,
      "Linear": 7822,
      "Missing": 7823,
      "Ptr": 7824,
      "SC": 7825,
      "Target": 7826,
      "TIME": 7827,
      "]=": 7828,
      "fra": 7829,
      "faces": 7830,
      "ln": 7831,
      "sin": 7832,
      "Ġactions": 7833,
      "orical": 7834,
      "atin": 7835,
      "Ġcars": 7836,
      "degrees": 7837,
      "Ġpr": 7838,
      "Ġnb": 7839,
      "Ġmouse": 7840,
      "ateway": 7841,
      "Ġbed": 7842,
      "ything": 7843,
      "ĠPDF": 7844,
      "tep": 7845,
      "Ġthus": 7846,
      "ĠCaesar": 7847,
      "ĠTrie": 7848,
      "Ġ(?,": 7849,
      "coords": 7850,
      "Ġanalyzer": 7851,
      "Ġstem": 7852,
      "listdir": 7853,
      "ircul": 7854,
      "Ġmaxlen": 7855,
      "ĠSU": 7856,
      "ĠWindow": 7857,
      "ddit": 7858,
      "contours": 7859,
      "outh": 7860,
      "Ġ300": 7861,
      "Ġpreprocessing": 7862,
      "Ġprecedence": 7863,
      "======": 7864,
      "exist": 7865,
      "coming": 7866,
      "Ġtextblob": 7867,
      "priority": 7868,
      "Ġdicts": 7869,
      "Ġwebdriver": 7870,
      "ĠExecute": 7871,
      "food": 7872,
      "Ġgreen": 7873,
      "returns": 7874,
      "Ġvisiting": 7875,
      "Ġpopping": 7876,
      "Ġ10000": 7877,
      "maze": 7878,
      "SVC": 7879,
      "outputs": 7880,
      "Ġmoved": 7881,
      "âĢĺ": 7882,
      "ROUP": 7883,
      "latest": 7884,
      "Ġconfusion": 7885,
      "ĠprefixSum": 7886,
      "organ": 7887,
      "gnu": 7888,
      "Ġdetermin": 7889,
      "Ġpolynomial": 7890,
      "ULL": 7891,
      "built": 7892,
      "unittest": 7893,
      "Ġwaiting": 7894,
      "complete": 7895,
      "Ġvertical": 7896,
      "coef": 7897,
      "ĠGoogle": 7898,
      "payload": 7899,
      "ĠDetermines": 7900,
      "Square": 7901,
      "0000007": 7902,
      "ĠGaussianNB": 7903,
      "Ġancestors": 7904,
      "=_(\"": 7905,
      "purchase": 7906,
      "ĠPOST": 7907,
      "Success": 7908,
      "akaReq": 7909,
      "ĠElse": 7910,
      "Ġexhausted": 7911,
      "Difference": 7912,
      "Ġimmediately": 7913,
      "-=": 7914,
      "-',": 7915,
      "04": 7916,
      "400": 7917,
      "BFS": 7918,
      "Buzz": 7919,
      "Day": 7920,
      "FOR": 7921,
      "ForeignKey": 7922,
      "Note": 7923,
      "Orange": 7924,
      "SL": 7925,
      "cities": 7926,
      "dos": 7927,
      "happy": 7928,
      "ios": 7929,
      "pression": 7930,
      "rstrip": 7931,
      "tz": 7932,
      "{{": 7933,
      "ini": 7934,
      "inux": 7935,
      "inventory": 7936,
      "requ": 7937,
      "Ġair": 7938,
      "health": 7939,
      "stones": 7940,
      "Ġcut": 7941,
      "Ġclock": 7942,
      "Ġcaesar": 7943,
      "Ġfloor": 7944,
      "Ġinfix": 7945,
      "arange": 7946,
      "leaf": 7947,
      "Ġsvm": 7948,
      "Ġmight": 7949,
      "Ġeps": 7950,
      "utor": 7951,
      "Ġforms": 7952,
      "loud": 7953,
      "ivers": 7954,
      "ĠTuple": 7955,
      "ĠTEST": 7956,
      "Ġ[])": 7957,
      "Ġresp": 7958,
      "Ġannot": 7959,
      "Ġstars": 7960,
      "itecture": 7961,
      "Ġassum": 7962,
      "Ġhapp": 7963,
      "ups": 7964,
      "Ġwithdraw": 7965,
      "ĠmaxSum": 7966,
      "apps": 7967,
      "pear": 7968,
      "ĠThere": 7969,
      "ĠAtt": 7970,
      "ĠAuthor": 7971,
      "Ġimports": 7972,
      "ĠNext": 7973,
      "Ġrob": 7974,
      "aml": 7975,
      "Ġleftmost": 7976,
      "ĠRegression": 7977,
      "problems": 7978,
      "Ġ55": 7979,
      "currency": 7980,
      "Ġprepare": 7981,
      "ĠInstall": 7982,
      "angman": 7983,
      "Initial": 7984,
      "Ġpdf": 7985,
      "Ġscikit": 7986,
      "logging": 7987,
      "Ġ1000000007": 7988,
      "SECRET": 7989,
      "LED": 7990,
      "ArgumentParser": 7991,
      "divide": 7992,
      "Ġgeneral": 7993,
      "transaction": 7994,
      "Ġregion": 7995,
      "checker": 7996,
      "999": 7997,
      "Ġcomparator": 7998,
      "=[]": 7999,
      "URI": 8000,
      "ĠÐº": 8001,
      "Ġfrequently": 8002,
      "ĠProgramming": 8003,
      "Ġ'-'": 8004,
      "ĠINTEGER": 8005,
      "ĠShow": 8006,
      "Ġcontacts": 8007,
      "Ġrequirement": 8008,
      "ĠRandomForestRegressor": 8009,
      "ĠReverses": 8010,
      "Windows": 8011,
      "guesses": 8012,
      "Ġ'*':": 8013,
      "Ġconsistent": 8014,
      "Ġissues": 8015,
      "symbol": 8016,
      "Ġtraceback": 8017,
      "Ġproviding": 8018,
      "components": 8019,
      "&*": 8020,
      "'+": 8021,
      "-.": 8022,
      "Categor": 8023,
      "Diff": 8024,
      "Hash": 8025,
      "Loc": 8026,
      "MM": 8027,
      "NING": 8028,
      "NIST": 8029,
      "Obj": 8030,
      "Qt": 8031,
      "TEST": 8032,
      "UNT": 8033,
      "Win": 8034,
      "When": 8035,
      "_{": 8036,
      "cube": 8037,
      "cuda": 8038,
      "dt": 8039,
      "gold": 8040,
      "hicle": 8041,
      "mg": 8042,
      "mysql": 8043,
      "padding": 8044,
      "qa": 8045,
      "rtype": 8046,
      "sa": 8047,
      "tot": 8048,
      "vance": 8049,
      "virtual": 8050,
      "Ġtorch": 8051,
      "enum": 8052,
      "Ġtheta": 8053,
      "decrypt": 8054,
      "Ġinp": 8055,
      "Ġpan": 8056,
      "Ġpseudo": 8057,
      "Ġown": 8058,
      "uting": 8059,
      "utakaReq": 8060,
      "Ġbig": 8061,
      "Ġbank": 8062,
      "define": 8063,
      "chdir": 8064,
      "ĠPRO": 8065,
      "logs": 8066,
      "ĠCircle": 8067,
      "ĠTask": 8068,
      "ots": 8069,
      "oting": 8070,
      "copg": 8071,
      "()),": 8072,
      "verbose": 8073,
      "Ġstderr": 8074,
      "quote": 8075,
      "Ġhal": 8076,
      "Ġhints": 8077,
      "('<": 8078,
      "activity": 8079,
      "')(": 8080,
      "ĠSystem": 8081,
      "lenium": 8082,
      "Ġroutes": 8083,
      "classmethod": 8084,
      "Ġsubtraction": 8085,
      "agent": 8086,
      "Ġpreorder": 8087,
      "urlparse": 8088,
      "export": 8089,
      "php": 8090,
      "bool": 8091,
      "../": 8092,
      "ĠAdds": 8093,
      "moved": 8094,
      "players": 8095,
      "Ġalphabets": 8096,
      "Station": 8097,
      "Ġdeletion": 8098,
      "greeting": 8099,
      "('/',": 8100,
      "Ġmeta": 8101,
      "captcha": 8102,
      "Ġautomated": 8103,
      "Ġdocumentation": 8104,
      "seqs": 8105,
      "baud": 8106,
      "........": 8107,
      "contains": 8108,
      "ĠLeft": 8109,
      "Board": 8110,
      "Ġcandidates": 8111,
      "Adam": 8112,
      "Ġcrossover": 8113,
      "macro": 8114,
      "(.*)": 8115,
      "(.*?)": 8116,
      "ĠAssign": 8117,
      "Ġapplicable": 8118,
      "Ġscalar": 8119,
      "voltdb": 8120,
      "Ġfully": 8121,
      "Largest": 8122,
      "\";": 8123,
      "\"},": 8124,
      "'ll": 8125,
      "0123456789": 8126,
      ">\")": 8127,
      "?\\": 8128,
      "@#$%": 8129,
      "GL": 8130,
      "License": 8131,
      "Part": 8132,
      "Pop": 8133,
      "Split": 8134,
      "Util": 8135,
      "Vec": 8136,
      "_=\"": 8137,
      "cr": 8138,
      "found": 8139,
      "lr": 8140,
      "punct": 8141,
      "sources": 8142,
      "uint": 8143,
      "Ġ),": 8144,
      "ĠĠĠĠčĊ": 8145,
      "inv": 8146,
      "Ġtip": 8147,
      "repe": 8148,
      "semb": 8149,
      "arrow": 8150,
      "Ġpast": 8151,
      "Ġpsy": 8152,
      "Ġsr": 8153,
      "Ġsafe": 8154,
      "Ġsalaries": 8155,
      "roc": 8156,
      "Ġment": 8157,
      "Ġwrapper": 8158,
      "Ġds": 8159,
      "Ġbirth": 8160,
      "Ġbias": 8161,
      "Ġseats": 8162,
      "Ġsegments": 8163,
      "rics": 8164,
      "Ġ\"</": 8165,
      "Ġnumerator": 8166,
      "tems": 8167,
      "ivation": 8168,
      "ĠTensor": 8169,
      "oto": 8170,
      "ife": 8171,
      "Ġconversion": 8172,
      "ĠSample": 8173,
      "force": 8174,
      "Ġdeposit": 8175,
      "Ġdecoding": 8176,
      "need": 8177,
      "Ġvc": 8178,
      "ĠRepeat": 8179,
      "ĠRectangle": 8180,
      "ĠEnd": 8181,
      "Ġindexes": 8182,
      "phant": 8183,
      "readlines": 8184,
      "Ġ:-": 8185,
      "crease": 8186,
      "Ġperformed": 8187,
      "computer": 8188,
      "Ġpopulate": 8189,
      "Ġhello": 8190,
      "Ġfeat": 8191,
      "Ġextracting": 8192,
      "ARD": 8193,
      "Ġpassing": 8194,
      "Seq": 8195,
      "ĉĉĉĊ": 8196,
      "backend": 8197,
      "configure": 8198,
      "Ġworkers": 8199,
      "ENV": 8200,
      "Format": 8201,
      "undred": 8202,
      "Unique": 8203,
      "Ġpowerful": 8204,
      "flags": 8205,
      "Traversal": 8206,
      "ĠLinked": 8207,
      "Ġeasily": 8208,
      "ĠKeyError": 8209,
      "ĠClassify": 8210,
      "Indx": 8211,
      "candies": 8212,
      "Ġevaluation": 8213,
      "Ġbacktracking": 8214,
      "Policy": 8215,
      "Ġballs": 8216,
      "Ġissue": 8217,
      "member": 8218,
      "AuthHandler": 8219,
      "Bucket": 8220,
      "allenge": 8221,
      "lotting": 8222,
      "Ġpsycopg": 8223,
      "!',": 8224,
      "-\\": 8225,
      ".)": 8226,
      "54": 8227,
      "BN": 8228,
      "Back": 8229,
      "Dig": 8230,
      "Finder": 8231,
      "PY": 8232,
      "PER": 8233,
      "cas": 8234,
      "cuts": 8235,
      "fi": 8236,
      "gain": 8237,
      "hy": 8238,
      "machine": 8239,
      "oe": 8240,
      "pot": 8241,
      "sil": 8242,
      "vider": 8243,
      "Ñĭ": 8244,
      "Ġí": 8245,
      "Ġĉ": 8246,
      "invalid": 8247,
      "ste": 8248,
      "Ġcd": 8249,
      "Ġcru": 8250,
      "Ġreplaces": 8251,
      "Ġpul": 8252,
      "Ġpiles": 8253,
      "Ġsending": 8254,
      "Ġow": 8255,
      "Ġmd": 8256,
      "entries": 8257,
      "Ġbt": 8258,
      "Ġbre": 8259,
      "ante": 8260,
      "Ġcolour": 8261,
      "ĠTO": 8262,
      "coin": 8263,
      "cover": 8264,
      "dice": 8265,
      "Ġasyn": 8266,
      "Ġconvent": 8267,
      "Ġhanoi": 8268,
      "('',": 8269,
      "ubs": 8270,
      "uby": 8271,
      "Ġpowers": 8272,
      "artment": 8273,
      "ĠDate": 8274,
      "ĠAR": 8275,
      "nested": 8276,
      "Ġcurrently": 8277,
      "Ġminute": 8278,
      "ĠEvent": 8279,
      "ĠMon": 8280,
      "itional": 8281,
      "previous": 8282,
      "iterations": 8283,
      "distrib": 8284,
      "chema": 8285,
      "owner": 8286,
      "ĠSepar": 8287,
      "Ġexpr": 8288,
      "forever": 8289,
      "Ġmylist": 8290,
      "Project": 8291,
      "Ġdeletions": 8292,
      "READ": 8293,
      "Ġspan": 8294,
      "ĠConstructor": 8295,
      "Ġartist": 8296,
      "createElement": 8297,
      "connected": 8298,
      "Ġfoo": 8299,
      "Ġ./": 8300,
      "ĠDatabase": 8301,
      ")+\"": 8302,
      "SERVICE": 8303,
      "Ġreaching": 8304,
      "Tests": 8305,
      "Ġmonths": 8306,
      "Train": 8307,
      "ĠCommon": 8308,
      "Ġ'{\"": 8309,
      "DBUS": 8310,
      "Ġ'-':": 8311,
      "Ġbalanced": 8312,
      "Ġcollected": 8313,
      "Ġswapping": 8314,
      "ĠInitially": 8315,
      "attributes": 8316,
      "Ġconsisting": 8317,
      "jkstra": 8318,
      "Ġpascal": 8319,
      "ĠScra": 8320,
      "ĠQuick": 8321,
      "basic": 8322,
      "Â°Â°Â°Â°": 8323,
      "jection": 8324,
      "Ġcmupdf": 8325,
      "ĠDisplay": 8326,
      "Ġsuitable": 8327,
      "ĠScikit": 8328,
      "Ġhouses": 8329,
      "Signal": 8330,
      "ĠAccum": 8331,
      "Ġspacy": 8332,
      "Ġstrictly": 8333,
      "Ġhalves": 8334,
      "rocery": 8335,
      "Ġcrucial": 8336,
      "/')": 8337,
      "08": 8338,
      "BUT": 8339,
      "Core": 8340,
      "CLU": 8341,
      "GEN": 8342,
      "JECT": 8343,
      "Make": 8344,
      "Out": 8345,
      "PR": 8346,
      "Pairs": 8347,
      "TR": 8348,
      "^&*": 8349,
      "bits": 8350,
      "dr": 8351,
      "floor": 8352,
      "hive": 8353,
      "ki": 8354,
      "la": 8355,
      "mall": 8356,
      "vas": 8357,
      "Ġ).": 8358,
      "Ġ?)": 8359,
      "rer": 8360,
      "onds": 8361,
      "Ġink": 8362,
      "Ġnone": 8363,
      "raction": 8364,
      "urface": 8365,
      "Ġsleep": 8366,
      "Ġms": 8367,
      "Ġmapped": 8368,
      "Ġequations": 8369,
      "Ġbrowser": 8370,
      "Ġbreadth": 8371,
      "ĠĠĠĠĠĠĠĠĠĊ": 8372,
      "ĠPandas": 8373,
      "isk": 8374,
      "reser": 8375,
      "ilit": 8376,
      "icult": 8377,
      "Ġproceed": 8378,
      "Ġarrange": 8379,
      "dialog": 8380,
      "etree": 8381,
      "Ġnotification": 8382,
      "todo": 8383,
      "Ġdead": 8384,
      "Required": 8385,
      "ĠDB": 8386,
      "ĠNow": 8387,
      "ĠNULL": 8388,
      "igi": 8389,
      "single": 8390,
      "][-": 8391,
      "ĠGame": 8392,
      "ĠGrid": 8393,
      "ĠOpt": 8394,
      "Ġlogs": 8395,
      "cribe": 8396,
      "Ġkmeans": 8397,
      "ĠMNIST": 8398,
      "angular": 8399,
      "Ġshared": 8400,
      "Ġiteratively": 8401,
      "Ġcanal": 8402,
      "timeout": 8403,
      "Install": 8404,
      "subtract": 8405,
      "sobj": 8406,
      "headline": 8407,
      "Ġscen": 8408,
      "Ġreadability": 8409,
      "calendar": 8410,
      "placeholder": 8411,
      "ificial": 8412,
      "essential": 8413,
      "ĠState": 8414,
      "cio": 8415,
      "rypto": 8416,
      "Change": 8417,
      "Ġopts": 8418,
      "().__": 8419,
      "Ġdetected": 8420,
      "genes": 8421,
      "++)": 8422,
      "categories": 8423,
      "Ġblue": 8424,
      "Charact": 8425,
      "Ġagainst": 8426,
      "ĠAny": 8427,
      "imaginary": 8428,
      "ĠNeural": 8429,
      "Ġsatisfied": 8430,
      "ĠBoth": 8431,
      "Ġmultiplies": 8432,
      "ĠMaximum": 8433,
      "Ġcredentials": 8434,
      "Ġguar": 8435,
      "Ġmagnitude": 8436,
      "ĠPanama": 8437,
      "Ġproduces": 8438,
      "ĠAccumulate": 8439,
      "(%": 8440,
      ".</": 8441,
      "2000": 8442,
      "=-": 8443,
      "?':": 8444,
      "AGE": 8445,
      "Bound": 8446,
      "Celsius": 8447,
      "Event": 8448,
      "Flask": 8449,
      "Items": 8450,
      "LC": 8451,
      "MIN": 8452,
      "Median": 8453,
      "cut": 8454,
      "gg": 8455,
      "ginal": 8456,
      "ira": 8457,
      "iques": 8458,
      "mas": 8459,
      "pow": 8460,
      "pies": 8461,
      "tick": 8462,
      "Ġtill": 8463,
      "erial": 8464,
      "ongs": 8465,
      "Ġpunctuations": 8466,
      "raft": 8467,
      "uman": 8468,
      "Ġsit": 8469,
      "Ġsaf": 8470,
      "Ġlxml": 8471,
      "Ġembedding": 8472,
      "Ġbold": 8473,
      "Ġbrick": 8474,
      "anies": 8475,
      "anner": 8476,
      "ĠPort": 8477,
      "ĠisEmpty": 8478,
      "ĠTH": 8479,
      "ĠTic": 8480,
      "covery": 8481,
      "Ġprogress": 8482,
      "Ġresources": 8483,
      "___": 8484,
      "__()": 8485,
      "ablish": 8486,
      "Ġham": 8487,
      "Ġneighbour": 8488,
      "ĠNest": 8489,
      "Ġ51": 8490,
      "ancest": 8491,
      "matic": 8492,
      "bos": 8493,
      "weet": 8494,
      "Ġoverlapping": 8495,
      "energy": 8496,
      "Ġbreaks": 8497,
      "ĠStation": 8498,
      "ĠKEY": 8499,
      "ĠĠĠĠĠĠĠĠĠĠĠĠĠĠĠĠĠĠĠĠĠĠĠĠĠĠĠĠĠĠĠĠĠĠĠĠ": 8500,
      "interval": 8501,
      "translation": 8502,
      "Profit": 8503,
      "locations": 8504,
      "levels": 8505,
      "ĠDefining": 8506,
      "Cho": 8507,
      "objective": 8508,
      "Ġdbus": 8509,
      "Conf": 8510,
      "backends": 8511,
      "Ġ'.'": 8512,
      "ĠSplitting": 8513,
      "Ġauto": 8514,
      "heapify": 8515,
      "heights": 8516,
      "Ġshorter": 8517,
      "Ġreachable": 8518,
      "Ġ'/'": 8519,
      "Ġpolicy": 8520,
      "callback": 8521,
      "Ġexecuted": 8522,
      "ĠShould": 8523,
      "ADD": 8524,
      "Quantity": 8525,
      "Ġfinishes": 8526,
      "linux": 8527,
      "Ġpickle": 8528,
      "Ġ'*'": 8529,
      "DOM": 8530,
      "Ġconsistency": 8531,
      "ĠangleDeg": 8532,
      "Update": 8533,
      "variant": 8534,
      "Ġarchive": 8535,
      "~-~-~-~-": 8536,
      "activate": 8537,
      "Ġfigure": 8538,
      "ĠWordNetLemmatizer": 8539,
      "Ġfacilit": 8540,
      "ircular": 8541,
      "Ġguarante": 8542,
      ")],": 8543,
      "07": 8544,
      "AE": 8545,
      "AG": 8546,
      "Cipher": 8547,
      "GN": 8548,
      "GROUP": 8549,
      "How": 8550,
      "Mem": 8551,
      "Mark": 8552,
      "Network": 8553,
      "PL": 8554,
      "Sentence": 8555,
      "SUMER": 8556,
      "Small": 8557,
      "Widget": 8558,
      "]==": 8559,
      "]`:": 8560,
      "]*(": 8561,
      "actions": 8562,
      "cpu": 8563,
      "dns": 8564,
      "humidity": 8565,
      "jority": 8566,
      "mapping": 8567,
      "ossible": 8568,
      "pwd": 8569,
      "qem": 8570,
      "sive": 8571,
      "sites": 8572,
      "vil": 8573,
      "}</": 8574,
      "Ñı": 8575,
      "Ġê": 8576,
      "Ġtar": 8577,
      "repo": 8578,
      "erf": 8579,
      "sel": 8580,
      "Ġcmap": 8581,
      "Ġcircumference": 8582,
      "Ġfruits": 8583,
      "Ġfavorite": 8584,
      "Ġinward": 8585,
      "Ġinventory": 8586,
      "Ġindependent": 8587,
      "Ġreferences": 8588,
      "Ġpus": 8589,
      "Ġnorm": 8590,
      "Ġsizes": 8591,
      "Ġmass": 8592,
      "Ġmac": 8593,
      "Ġlu": 8594,
      "Ġland": 8595,
      "Ġdomino": 8596,
      "Ġseason": 8597,
      "Ġselenium": 8598,
      "chr": 8599,
      "chart": 8600,
      "Ġ\"\",": 8601,
      "Ġ\"\":": 8602,
      "Ġcover": 8603,
      "Ġcovered": 8604,
      "Ġgain": 8605,
      "ism": 8606,
      "isbn": 8607,
      "Ġ---": 8608,
      "Ġ----------": 8609,
      "Ġprobe": 8610,
      "Ġanaly": 8611,
      "izers": 8612,
      "Ġconvers": 8613,
      "Ġhumidity": 8614,
      "ĠmaxValue": 8615,
      "Ġwordnet": 8616,
      "Ġlem": 8617,
      "ĠSO": 8618,
      "ĠScore": 8619,
      "Ġdecl": 8620,
      "Ġjet": 8621,
      "Ġorig": 8622,
      "Ġxrange": 8623,
      "Ġroad": 8624,
      "amonds": 8625,
      "Ġ%}": 8626,
      "curse": 8627,
      "matched": 8628,
      "exercise": 8629,
      "comments": 8630,
      "boot": 8631,
      "atory": 8632,
      "monstr": 8633,
      "headlines": 8634,
      "ĠComplex": 8635,
      "Ġservices": 8636,
      "Ġnoun": 8637,
      "Ġlogistic": 8638,
      "IND": 8639,
      "INFO": 8640,
      "moving": 8641,
      "Ġimplementing": 8642,
      "Ġbackwards": 8643,
      "Ġinserting": 8644,
      "Ġtfidf": 8645,
      "Arr": 8646,
      "Ġcapabilities": 8647,
      "Ġtransl": 8648,
      "UTH": 8649,
      "Ġlooking": 8650,
      "ĠLoads": 8651,
      "party": 8652,
      "partition": 8653,
      "ISO": 8654,
      "Serial": 8655,
      "Ġretrieves": 8656,
      "ILURE": 8657,
      "specific": 8658,
      "CODE": 8659,
      "Ġexternal": 8660,
      "marker": 8661,
      "commun": 8662,
      "Ġreceives": 8663,
      "winner": 8664,
      "Ġmeeting": 8665,
      "weathermap": 8666,
      "super": 8667,
      "Minimum": 8668,
      "Ġpipe": 8669,
      "Scale": 8670,
      "Ones": 8671,
      "Decision": 8672,
      "separated": 8673,
      "processed": 8674,
      "Ġreserved": 8675,
      "Ġdialogflow": 8676,
      "ĠIdentify": 8677,
      "@#$%^&*": 8678,
      "ĠSeparate": 8679,
      "qemu": 8680,
      "#*": 8681,
      "(**": 8682,
      ")['": 8683,
      ".##": 8684,
      "/>.": 8685,
      "63": 8686,
      "89": 8687,
      "Author": 8688,
      "Cor": 8689,
      "Download": 8690,
      "Freq": 8691,
      "Last": 8692,
      "LIN": 8693,
      "Letter": 8694,
      "Option": 8695,
      "PLAY": 8696,
      "QUI": 8697,
      "Raise": 8698,
      "Stem": 8699,
      "TON": 8700,
      "Tuple": 8701,
      "Usage": 8702,
      "WPAS": 8703,
      "]/": 8704,
      "_,": 8705,
      "dro": 8706,
      "dump": 8707,
      "fruits": 8708,
      "gener": 8709,
      "mx": 8710,
      "ni": 8711,
      "nth": 8712,
      "palindrom": 8713,
      "sib": 8714,
      "yes": 8715,
      "reddit": 8716,
      "station": 8717,
      "allow": 8718,
      "Ġreven": 8719,
      "radians": 8720,
      "ros": 8721,
      "Ġmar": 8722,
      "esian": 8723,
      "Ġwall": 8724,
      "Ġwriter": 8725,
      "geometry": 8726,
      "Ġbul": 8727,
      "Ġbill": 8728,
      "meck": 8729,
      "chunk": 8730,
      "chmeck": 8731,
      "Ġ\"&": 8732,
      "ĠPos": 8733,
      "ĠPORT": 8734,
      "Ġcoordinate": 8735,
      "ĠChat": 8736,
      "isdir": 8737,
      "getElement": 8738,
      "placing": 8739,
      "Ġprinted": 8740,
      "Ġconcat": 8741,
      "Ġconanfile": 8742,
      "Ġconsonants": 8743,
      "etails": 8744,
      "(\"[": 8745,
      "Ġnever": 8746,
      "Ġneutral": 8747,
      "upation": 8748,
      "uble": 8749,
      "ĠnumberOf": 8750,
      "ĠSE": 8751,
      "ĠSkip": 8752,
      "])/": 8753,
      "Reach": 8754,
      "Reverse": 8755,
      "ialog": 8756,
      "ĠNormalize": 8757,
      "concaten": 8758,
      "nearest": 8759,
      "ĠReference": 8760,
      "ĠEst": 8761,
      "Ġclassifies": 8762,
      "Ġkv": 8763,
      "ĠInvert": 8764,
      "Ġrequested": 8765,
      "jectory": 8766,
      "maxsize": 8767,
      "paragraph": 8768,
      "accept": 8769,
      "Initialize": 8770,
      "primary": 8771,
      "private": 8772,
      "anted": 8773,
      "ario": 8774,
      "avid": 8775,
      ".....": 8776,
      "sched": 8777,
      "pended": 8778,
      "controller": 8779,
      "Ġcorrelation": 8780,
      "tokenized": 8781,
      "emale": 8782,
      "INST": 8783,
      "Ġoccurring": 8784,
      "tempt": 8785,
      "Ġtracking": 8786,
      "Ġ2020": 8787,
      "ORE": 8788,
      "major": 8789,
      "Dire": 8790,
      "Chars": 8791,
      "ĠProject": 8792,
      "Ġgoogle": 8793,
      "Ġiterables": 8794,
      "rupt": 8795,
      "Ġbasket": 8796,
      "Ġdisplaying": 8797,
      "Ġmonster": 8798,
      "Ġreduces": 8799,
      "IONS": 8800,
      "restaurant": 8801,
      "abcabc": 8802,
      "sendmail": 8803,
      "boundary": 8804,
      "Control": 8805,
      "Ġsupports": 8806,
      "Three": 8807,
      "Ġmeetings": 8808,
      "calculated": 8809,
      "Ġ^=": 8810,
      "multiplication": 8811,
      "DateTime": 8812,
      "Operation": 8813,
      "Ġbusiness": 8814,
      "Andor": 8815,
      "ĠLabelEncoder": 8816,
      "(?:": 8817,
      "Bottles": 8818,
      "diagonal": 8819,
      "(',')": 8820,
      "Transform": 8821,
      "PASS": 8822,
      "Ġrecognize": 8823,
      "divisors": 8824,
      "ĠHashMap": 8825,
      "Ġinvolves": 8826,
      "Ġpossibilities": 8827,
      "Ġrestri": 8828,
      "schema": 8829,
      "iculty": 8830,
      "Ġrevenues": 8831,
      ")`,": 8832,
      "03": 8833,
      ":],": 8834,
      "?\")": 8835,
      "ACT": 8836,
      "DS": 8837,
      "DIT": 8838,
      "FE": 8839,
      "GHT": 8840,
      "MB": 8841,
      "Mac": 8842,
      "Meta": 8843,
      "Occur": 8844,
      "OAuthHandler": 8845,
      "Pattern": 8846,
      "Phone": 8847,
      "RGB": 8848,
      "Smallest": 8849,
      "Schema": 8850,
      "[[": 8851,
      "bash": 8852,
      "gal": 8853,
      "gger": 8854,
      "gui": 8855,
      "none": 8856,
      "sparse": 8857,
      "swap": 8858,
      "variable": 8859,
      "wrap": 8860,
      "yield": 8861,
      "Ġ))": 8862,
      "Ġvec": 8863,
      "information": 8864,
      "Ġtrend": 8865,
      "Ġaw": 8866,
      "erce": 8867,
      "orst": 8868,
      "atas": 8869,
      "enames": 8870,
      "Ġcfg": 8871,
      "Ġfet": 8872,
      "Ġfrappe": 8873,
      "uri": 8874,
      "Ġss": 8875,
      "Ġsong": 8876,
      "istant": 8877,
      "Ġbpy": 8878,
      "ulary": 8879,
      "Ġ\"|": 8880,
      "ĠPl": 8881,
      "edir": 8882,
      "ĠCur": 8883,
      "ĠTable": 8884,
      "ĠTriangle": 8885,
      "coordinate": 8886,
      "apon": 8887,
      "ifact": 8888,
      "Ġanomalies": 8889,
      "))`:": 8890,
      "numpy": 8891,
      "Ġvals": 8892,
      "Ġconv": 8893,
      "Ġhit": 8894,
      "Ġhad": 8895,
      "('''": 8896,
      "upport": 8897,
      "Ġpow": 8898,
      "more": 8899,
      "fromstring": 8900,
      "Ġbeautiful": 8901,
      "Ġcounted": 8902,
      "ĠGen": 8903,
      "Ġtwisted": 8904,
      "Ġ%=": 8905,
      "texto": 8906,
      "Ġprerequ": 8907,
      "ĠEmbedding": 8908,
      "bob": 8909,
      "Ġunvisited": 8910,
      "quire": 8911,
      "findAll": 8912,
      "pades": 8913,
      "scrap": 8914,
      "']),": 8915,
      "Ġdefaults": 8916,
      "auty": 8917,
      "ĠbinarySearch": 8918,
      "vectors": 8919,
      "vectorized": 8920,
      "Ġhandwritten": 8921,
      "ĠStreet": 8922,
      "ĠSorted": 8923,
      "ĠKeras": 8924,
      "ĠPrints": 8925,
      "forecast": 8926,
      "Ġflips": 8927,
      "spot": 8928,
      "evenshtein": 8929,
      "Second": 8930,
      "postgres": 8931,
      "Ġspell": 8932,
      "DEX": 8933,
      "Ġmedia": 8934,
      "discount": 8935,
      "lemmatizer": 8936,
      "gnore": 8937,
      "rance": 8938,
      "Parse": 8939,
      "openweathermap": 8940,
      "Neutral": 8941,
      "Ġrearrange": 8942,
      "exceptions": 8943,
      "TextField": 8944,
      "168": 8945,
      "ĠseriesParams": 8946,
      "Ġinstallation": 8947,
      "Ġportfolio": 8948,
      "CHAR": 8949,
      "CHEM": 8950,
      "Ġdivides": 8951,
      "Ġtechniques": 8952,
      "ĠCommand": 8953,
      "devices": 8954,
      "fetchone": 8955,
      "attribute": 8956,
      "ĠCalculating": 8957,
      "ĠCalculator": 8958,
      "Interface": 8959,
      "ĠBoard": 8960,
      "elephant": 8961,
      "Ġrolling": 8962,
      "Ġpixels": 8963,
      "padded": 8964,
      "Temperature": 8965,
      "anned": 8966,
      "Ġearlier": 8967,
      "pickle": 8968,
      "Ġutility": 8969,
      "ssbData": 8970,
      "INTERFACE": 8971,
      "Ġsynonyms": 8972,
      "Ġbreed": 8973,
      "Ġfacilitate": 8974,
      "Raises": 8975,
      "Stemmer": 8976,
      "$'": 8977,
      ")\",": 8978,
      "48": 8979,
      "49": 8980,
      ";\\": 8981,
      "Dn": 8982,
      "DING": 8983,
      "DATE": 8984,
      "Gender": 8985,
      "Implement": 8986,
      "PRI": 8987,
      "Rate": 8988,
      "SH": 8989,
      "big": 8990,
      "brid": 8991,
      "cars": 8992,
      "dts": 8993,
      "epe": 8994,
      "evt": 8995,
      "fct": 8996,
      "tx": 8997,
      "æķ": 8998,
      "Ġ])": 8999,
      "Ġessential": 9000,
      "recv": 9001,
      "recogn": 9002,
      "Ġawait": 9003,
      "stat": 9004,
      "star": 9005,
      "stone": 9006,
      "seats": 9007,
      "delim": 9008,
      "Ġfd": 9009,
      "arp": 9010,
      "itcher": 9011,
      "uro": 9012,
      "Ġsends": 9013,
      "Ġsibling": 9014,
      "Ġmal": 9015,
      "Ġmuch": 9016,
      "Ġworst": 9017,
      "Ġdid": 9018,
      "Ġbuffer": 9019,
      "Ġbranch": 9020,
      "Ġoffer": 9021,
      "Ġ'':": 9022,
      "rible": 9023,
      "Ġglob": 9024,
      "ĠTk": 9025,
      "Ġ-------": 9026,
      "Ġuuid": 9027,
      "resize": 9028,
      "resources": 9029,
      "Ġprotocol": 9030,
      "Ġstat": 9031,
      "Ġarbit": 9032,
      "));": 9033,
      "))))": 9034,
      "assign": 9035,
      "plies": 9036,
      "Ġhog": 9037,
      "('[": 9038,
      "('.')": 9039,
      "updates": 9040,
      "Ġnotice": 9041,
      "serv": 9042,
      "Ġyiel": 9043,
      "ĠAc": 9044,
      "Ġorient": 9045,
      "lying": 9046,
      "Ġvisible": 9047,
      "ammal": 9048,
      "ĠLSTM": 9049,
      "Ġ%.": 9050,
      "Ġexpon": 9051,
      "Ġmins": 9052,
      "ĠReset": 9053,
      "protocol": 9054,
      "Ġ5000": 9055,
      "ĠBreadth": 9056,
      "ĠML": 9057,
      "venshtein": 9058,
      "Ġstarted": 9059,
      ").__": 9060,
      "ffs": 9061,
      "Ġdocs": 9062,
      "Ġplaces": 9063,
      "subsets": 9064,
      "Ġhasn": 9065,
      "Ġpercent": 9066,
      "ĠreverseString": 9067,
      "years": 9068,
      "Ġ99": 9069,
      "isites": 9070,
      "Ġrepr": 9071,
      "ĠChecking": 9072,
      "Ġapples": 9073,
      "compar": 9074,
      "Ġnoqa": 9075,
      "ously": 9076,
      "Ġdiscriminant": 9077,
      "Ġpartitions": 9078,
      "ĠĠĠĠĠĠĠĠĠĠĠĠĠĠĠĠĠĠĠĠĠĠĠĠĠĠĠĠĠĠĠĠĠĠĠĠĠ": 9079,
      "worker": 9080,
      "Ġsyn": 9081,
      "Ġtraversed": 9082,
      "Ġmanifest": 9083,
      "boton": 9084,
      "ITE": 9085,
      "lision": 9086,
      "preds": 9087,
      "Connect": 9088,
      "Ġ256": 9089,
      "Ident": 9090,
      "Ġaudio": 9091,
      "Subsequence": 9092,
      "assertFalse": 9093,
      "ĠTesting": 9094,
      "Ġsignature": 9095,
      "issions": 9096,
      "Ġmemc": 9097,
      "matching": 9098,
      "Header": 9099,
      "ĠChar": 9100,
      "Ġguesses": 9101,
      "flip": 9102,
      "cade": 9103,
      "Ġrotations": 9104,
      "ĠAnalyze": 9105,
      "sqlalchemy": 9106,
      "Ġconcatenation": 9107,
      "Ġconcatenated": 9108,
      "imagen": 9109,
      "probability": 9110,
      "Ġoffspring": 9111,
      "Ġachieved": 9112,
      "Ġapplying": 9113,
      "operation": 9114,
      "Indices": 9115,
      "Goodbye": 9116,
      "IOU": 9117,
      "ĠQuery": 9118,
      "Route": 9119,
      "ĠHere": 9120,
      "basename": 9121,
      "threads": 9122,
      "Iterator": 9123,
      "ÂłÂłÂłÂłÂłÂłÂł": 9124,
      "PTION": 9125,
      "ĠService": 9126,
      "ĠYields": 9127,
      "LinkedList": 9128,
      "Callbacks": 9129,
      "Ġmanipulation": 9130,
      "Ġattempts": 9131,
      "Ġcredit": 9132,
      "dddddddd": 9133,
      "ĠAutom": 9134,
      "Ġsignificantly": 9135,
      "plets": 9136,
      "Ġpkt": 9137,
      "Month": 9138,
      "Ġjoins": 9139,
      "ĠHttpResponse": 9140,
      "arshalling": 9141,
      "#------------------------------------------------------------------------------": 9142,
      "orpho": 9143,
      "ĠTensorFlow": 9144,
      "Ġconvention": 9145,
      "ĠinkDraw": 9146,
      "AEIOU": 9147,
      "epest": 9148,
      "Ġyielded": 9149,
      "!\"))": 9150,
      "'`": 9151,
      "=\",\"": 9152,
      "BT": 9153,
      "Face": 9154,
      "Gener": 9155,
      "MD": 9156,
      "Sample": 9157,
      "Using": 9158,
      "VI": 9159,
      "after": 9160,
      "bies": 9161,
      "craw": 9162,
      "dst": 9163,
      "fab": 9164,
      "hp": 9165,
      "how": 9166,
      "hob": 9167,
      "java": 9168,
      "osed": 9169,
      "oids": 9170,
      "rr": 9171,
      "rule": 9172,
      "uses": 9173,
      "urences": 9174,
      "åı": 9175,
      "è¯": 9176,
      "ìĦ": 9177,
      "ï¼": 9178,
      "Ġ..": 9179,
      "Ġerr": 9180,
      "Ġ?,": 9181,
      "inline": 9182,
      "Ġty": 9183,
      "rec": 9184,
      "render": 9185,
      "ondo": 9186,
      "atial": 9187,
      "Ġcub": 9188,
      "Ġcau": 9189,
      "Ġcrop": 9190,
      "Ġpadd": 9191,
      "Ġptr": 9192,
      "Ġnavig": 9193,
      "itivity": 9194,
      "Ġsa": 9195,
      "Ġscope": 9196,
      "road": 9197,
      "rogs": 9198,
      "Ġops": 9199,
      "Ġtok": 9200,
      "Ġtools": 9201,
      "Ġwind": 9202,
      "Ġever": 9203,
      "Ġdrop": 9204,
      "istrib": 9205,
      "Ġsess": 9206,
      "Ġ180": 9207,
      "riends": 9208,
      "ĠPipeline": 9209,
      "tection": 9210,
      "complement": 9211,
      "icro": 9212,
      "vertex": 9213,
      "ombs": 9214,
      "ombre": 9215,
      "Ġchanging": 9216,
      "irror": 9217,
      "Ġhive": 9218,
      "Ġ{{": 9219,
      "tour": 9220,
      "Ġdelay": 9221,
      "needed": 9222,
      "Ġvi": 9223,
      "andwidth": 9224,
      "ĠGe": 9225,
      "ĠGPIO": 9226,
      "ĠLIS": 9227,
      "Ġexperience": 9228,
      "Ġmeets": 9229,
      "Ġsubstr": 9230,
      "counters": 9231,
      "aking": 9232,
      "Ġencounters": 9233,
      "ĠBUT": 9234,
      "Ġ48": 9235,
      "ĠInst": 9236,
      "Ġtargets": 9237,
      "Ġappended": 9238,
      "lie": 9239,
      "maxLength": 9240,
      "cycle": 9241,
      "Ġparallel": 9242,
      "Ġplugin": 9243,
      "Ġhashed": 9244,
      "Ġ85": 9245,
      "starttls": 9246,
      "Ġskill": 9247,
      "roots": 9248,
      "ĠHost": 9249,
      "ĠmergeSort": 9250,
      "chef": 9251,
      "Ġoccurred": 9252,
      "ĠinvertArrows": 9253,
      "Ġintersect": 9254,
      "workers": 9255,
      "ĠVariables": 9256,
      "Ġbackground": 9257,
      "RECT": 9258,
      "Ġactivity": 9259,
      "notification": 9260,
      "Ġgover": 9261,
      "Ġdescend": 9262,
      "Counts": 9263,
      "expand": 9264,
      "Ġtransformation": 9265,
      "Ġtranspose": 9266,
      "ElementTree": 9267,
      "ĠApple": 9268,
      "Ġyielding": 9269,
      "Ġreplaced": 9270,
      "Ġgenes": 9271,
      "ritical": 9272,
      "Ġ&&": 9273,
      "Ġhosts": 9274,
      "Ġautomate": 9275,
      "Ġconstructed": 9276,
      "destroy": 9277,
      "abcba": 9278,
      "uzzy": 9279,
[...]
